{
  "version": "1.0",
  "truncation": null,
  "padding": null,
  "added_tokens": [
    {
      "id": 0,
      "content": "[PAD]",
      "single_word": false,
      "lstrip": false,
      "rstrip": false,
      "normalized": false,
      "special": true
    },
    {
      "id": 1,
      "content": "[UNK]",
      "single_word": false,
      "lstrip": false,
      "rstrip": false,
      "normalized": false,
      "special": true
    },
    {
      "id": 2,
      "content": "[BOS]",
      "single_word": false,
      "lstrip": false,
      "rstrip": false,
      "normalized": false,
      "special": true
    },
    {
      "id": 3,
      "content": "[EOS]",
      "single_word": false,
      "lstrip": false,
      "rstrip": false,
      "normalized": false,
      "special": true
    }
  ],
  "normalizer": null,
  "pre_tokenizer": {
    "type": "Whitespace"
  },
  "post_processor": null,
  "decoder": null,
  "model": {
    "type": "BPE",
    "dropout": null,
    "unk_token": null,
    "continuing_subword_prefix": null,
    "end_of_word_suffix": null,
    "fuse_unk": false,
    "byte_fallback": false,
    "ignore_merges": false,
    "vocab": {
      "[PAD]": 0,
      "[UNK]": 1,
      "[BOS]": 2,
      "[EOS]": 3,
      "!": 4,
      "\"": 5,
      "#": 6,
      "$": 7,
      "%": 8,
      "&": 9,
      "'": 10,
      "(": 11,
      ")": 12,
      "*": 13,
      "+": 14,
      ",": 15,
      "-": 16,
      ".": 17,
      "/": 18,
      "0": 19,
      "1": 20,
      "2": 21,
      "3": 22,
      "4": 23,
      "5": 24,
      "6": 25,
      "7": 26,
      "8": 27,
      "9": 28,
      ":": 29,
      ";": 30,
      "<": 31,
      "=": 32,
      ">": 33,
      "?": 34,
      "@": 35,
      "A": 36,
      "B": 37,
      "C": 38,
      "D": 39,
      "E": 40,
      "F": 41,
      "G": 42,
      "H": 43,
      "I": 44,
      "J": 45,
      "K": 46,
      "L": 47,
      "M": 48,
      "N": 49,
      "O": 50,
      "P": 51,
      "Q": 52,
      "R": 53,
      "S": 54,
      "T": 55,
      "U": 56,
      "V": 57,
      "W": 58,
      "X": 59,
      "Y": 60,
      "Z": 61,
      "[": 62,
      "\\": 63,
      "]": 64,
      "^": 65,
      "_": 66,
      "`": 67,
      "a": 68,
      "b": 69,
      "c": 70,
      "d": 71,
      "e": 72,
      "f": 73,
      "g": 74,
      "h": 75,
      "i": 76,
      "j": 77,
      "k": 78,
      "l": 79,
      "m": 80,
      "n": 81,
      "o": 82,
      "p": 83,
      "q": 84,
      "r": 85,
      "s": 86,
      "t": 87,
      "u": 88,
      "v": 89,
      "w": 90,
      "x": 91,
      "y": 92,
      "z": 93,
      "{": 94,
      "|": 95,
      "}": 96,
      "~": 97,
      "£": 98,
      "¨": 99,
      "©": 100,
      "´": 101,
      "·": 102,
      "Ç": 103,
      "×": 104,
      "ß": 105,
      "ä": 106,
      "ç": 107,
      "ö": 108,
      "ü": 109,
      "ı": 110,
      "Ł": 111,
      "œ": 112,
      "ˆ": 113,
      "˜": 114,
      "α": 115,
      "β": 116,
      "π": 117,
      "ϵ": 118,
      "–": 119,
      "—": 120,
      "‘": 121,
      "’": 122,
      "“": 123,
      "”": 124,
      "†": 125,
      "‡": 126,
      "•": 127,
      "™": 128,
      "∈": 129,
      "∑": 130,
      "−": 131,
      "∗": 132,
      "√": 133,
      "∞": 134,
      "◦": 135,
      "ﬁ": 136,
      "ﬂ": 137,
      "he": 138,
      "the": 139,
      "in": 140,
      "an": 141,
      "re": 142,
      "ou": 143,
      "ha": 144,
      "on": 145,
      "er": 146,
      "is": 147,
      "ed": 148,
      "as": 149,
      "it": 150,
      "to": 151,
      "en": 152,
      "and": 153,
      "of": 154,
      "or": 155,
      "ing": 156,
      "es": 157,
      "at": 158,
      "ll": 159,
      "ar": 160,
      "hat": 161,
      "th": 162,
      "me": 163,
      "st": 164,
      "le": 165,
      "se": 166,
      "ow": 167,
      "be": 168,
      "you": 169,
      "that": 170,
      "ve": 171,
      "was": 172,
      "hi": 173,
      "ld": 174,
      "id": 175,
      "ro": 176,
      "ly": 177,
      "ce": 178,
      "ch": 179,
      "we": 180,
      "his": 181,
      "no": 182,
      "gh": 183,
      "ver": 184,
      "al": 185,
      "ut": 186,
      "ent": 187,
      "sa": 188,
      "ri": 189,
      "ad": 190,
      "so": 191,
      "had": 192,
      "The": 193,
      "for": 194,
      "ith": 195,
      ".”": 196,
      "ion": 197,
      "with": 198,
      "ould": 199,
      "ay": 200,
      "li": 201,
      "all": 202,
      "ac": 203,
      "ter": 204,
      "my": 205,
      "ght": 206,
      "have": 207,
      "ir": 208,
      "co": 209,
      "nd": 210,
      "up": 211,
      "ur": 212,
      "oo": 213,
      "one": 214,
      "not": 215,
      "whi": 216,
      "et": 217,
      "ho": 218,
      "ab": 219,
      "man": 220,
      "us": 221,
      "are": 222,
      "out": 223,
      "ne": 224,
      "ti": 225,
      "which": 226,
      "him": 227,
      "ag": 228,
      "mo": 229,
      "ke": 230,
      "said": 231,
      "ther": 232,
      "ain": 233,
      "fe": 234,
      "de": 235,
      "am": 236,
      "ol": 237,
      "our": 238,
      "her": 239,
      "do": 240,
      "po": 241,
      "ill": 242,
      "un": 243,
      "mes": 244,
      "pe": 245,
      "but": 246,
      "?”": 247,
      "ck": 248,
      "rom": 249,
      "this": 250,
      "su": 251,
      "sh": 252,
      "red": 253,
      ",”": 254,
      "tr": 255,
      "lo": 256,
      "con": 257,
      "own": 258,
      "ap": 259,
      "It": 260,
      "He": 261,
      "she": 262,
      "from": 263,
      "Hol": 264,
      "Holmes": 265,
      "whe": 266,
      "very": 267,
      "ex": 268,
      "te": 269,
      "now": 270,
      "were": 271,
      "ess": 272,
      "ge": 273,
      "qu": 274,
      "end": 275,
      "ct": 276,
      "mp": 277,
      "upon": 278,
      "ard": 279,
      "by": 280,
      "some": 281,
      "thing": 282,
      "who": 283,
      "ust": 284,
      "been": 285,
      "there": 286,
      "ound": 287,
      "would": 288,
      "your": 289,
      "ight": 290,
      "if": 291,
      "res": 292,
      "see": 293,
      "il": 294,
      "way": 295,
      "ind": 296,
      "ook": 297,
      "fo": 298,
      "ul": 299,
      "can": 300,
      "could": 301,
      "fa": 302,
      "ast": 303,
      "ca": 304,
      "Mr": 305,
      "ous": 306,
      "they": 307,
      "ack": 308,
      "ra": 309,
      "lf": 310,
      "ant": 311,
      "est": 312,
      "We": 313,
      "will": 314,
      "pl": 315,
      "son": 316,
      "ate": 317,
      "them": 318,
      "go": 319,
      "ong": 320,
      "ation": 321,
      "You": 322,
      "wor": 323,
      "itt": 324,
      "ood": 325,
      "si": 326,
      "what": 327,
      "when": 328,
      "wo": 329,
      "ment": 330,
      "has": 331,
      "ak": 332,
      "ough": 333,
      "ure": 334,
      "per": 335,
      "any": 336,
      "bo": 337,
      "able": 338,
      "hed": 339,
      "into": 340,
      "fore": 341,
      "self": 342,
      "hand": 343,
      "ink": 344,
      "art": 345,
      "ven": 346,
      "ide": 347,
      "ic": 348,
      "ark": 349,
      "other": 350,
      "om": 351,
      "should": 352,
      "know": 353,
      "too": 354,
      "ry": 355,
      "But": 356,
      "down": 357,
      "af": 358,
      "bl": 359,
      "more": 360,
      "har": 361,
      "gl": 362,
      "over": 363,
      "ers": 364,
      "ep": 365,
      "pro": 366,
      "urn": 367,
      "ever": 368,
      "ble": 369,
      "ake": 370,
      "how": 371,
      "op": 372,
      "ran": 373,
      "There": 374,
      "ask": 375,
      "ite": 376,
      "cri": 377,
      "room": 378,
      "look": 379,
      "ist": 380,
      "ittle": 381,
      "little": 382,
      "ought": 383,
      "br": 384,
      "int": 385,
      "cl": 386,
      "then": 387,
      "reat": 388,
      "about": 389,
      "ved": 390,
      "!”": 391,
      "come": 392,
      "time": 393,
      "day": 394,
      "ouse": 395,
      "ig": 396,
      "ence": 397,
      "ass": 398,
      "came": 399,
      "act": 400,
      "pr": 401,
      "did": 402,
      "ade": 403,
      "may": 404,
      "gr": 405,
      "only": 406,
      ".\"": 407,
      "und": 408,
      "ear": 409,
      "sha": 410,
      "ret": 411,
      "pos": 412,
      "before": 413,
      "ey": 414,
      ",\"": 415,
      "think": 416,
      "el": 417,
      "med": 418,
      "here": 419,
      "ance": 420,
      "again": 421,
      "face": 422,
      "back": 423,
      "com": 424,
      "read": 425,
      "In": 426,
      "must": 427,
      "than": 428,
      "their": 429,
      "No": 430,
      "ive": 431,
      "ally": 432,
      "cas": 433,
      "ans": 434,
      "like": 435,
      "Wat": 436,
      "let": 437,
      "ort": 438,
      "age": 439,
      "ave": 440,
      "What": 441,
      "ci": 442,
      "ru": 443,
      "two": 444,
      "say": 445,
      "And": 446,
      "ull": 447,
      "ress": 448,
      "house": 449,
      "cle": 450,
      "night": 451,
      "Watson": 452,
      "ning": 453,
      "ves": 454,
      "im": 455,
      "get": 456,
      "ond": 457,
      "dis": 458,
      "tain": 459,
      "vi": 460,
      "ine": 461,
      "long": 462,
      "llow": 463,
      "fri": 464,
      "oun": 465,
      "ree": 466,
      "thr": 467,
      "ue": 468,
      "ob": 469,
      "well": 470,
      "led": 471,
      "door": 472,
      "after": 473,
      "ty": 474,
      "Well": 475,
      "ser": 476,
      "ity": 477,
      "St": 478,
      "mat": 479,
      "vent": 480,
      "sm": 481,
      "old": 482,
      "new": 483,
      "mor": 484,
      "pp": 485,
      "side": 486,
      "where": 487,
      "ang": 488,
      "never": 489,
      "mu": 490,
      "rem": 491,
      "thought": 492,
      "hy": 493,
      "ish": 494,
      "sp": 495,
      "light": 496,
      "comp": 497,
      "last": 498,
      "mb": 499,
      "use": 500,
      "That": 501,
      "Then": 502,
      "most": 503,
      "tell": 504,
      "head": 505,
      "spe": 506,
      "sc": 507,
      "la": 508,
      "ened": 509,
      "rest": 510,
      "lock": 511,
      "good": 512,
      "wi": 513,
      "made": 514,
      "ft": 515,
      "lice": 516,
      "just": 517,
      "tor": 518,
      "ving": 519,
      "found": 520,
      "ng": 521,
      "ace": 522,
      "ud": 523,
      "ﬁr": 524,
      "friend": 525,
      "mer": 526,
      "its": 527,
      "might": 528,
      "alk": 529,
      "such": 530,
      "ful": 531,
      "ise": 532,
      "case": 533,
      "She": 534,
      "min": 535,
      "turn": 536,
      "ward": 537,
      "much": 538,
      "ary": 539,
      "off": 540,
      "ord": 541,
      "shall": 542,
      "under": 543,
      "even": 544,
      "imp": 545,
      "wind": 546,
      "ick": 547,
      "ss": 548,
      "eyes": 549,
      "ted": 550,
      "less": 551,
      "ner": 552,
      "nothing": 553,
      "cer": 554,
      "put": 555,
      "ath": 556,
      "great": 557,
      "every": 558,
      "saw": 559,
      "ach": 560,
      "che": 561,
      "di": 562,
      "ps": 563,
      "men": 564,
      "ared": 565,
      "If": 566,
      "away": 567,
      "row": 568,
      "heard": 569,
      "asked": 570,
      "cour": 571,
      "bet": 572,
      "right": 573,
      "through": 574,
      "car": 575,
      "cried": 576,
      "ame": 577,
      "pre": 578,
      "round": 579,
      "sir": 580,
      "cha": 581,
      "matter": 582,
      "ﬁrst": 583,
      "point": 584,
      "ried": 585,
      "ated": 586,
      "left": 587,
      "word": 588,
      "once": 589,
      "iss": 590,
      "ction": 591,
      "air": 592,
      "sto": 593,
      "coun": 594,
      "So": 595,
      "This": 596,
      "Yes": 597,
      "ice": 598,
      "went": 599,
      "stand": 600,
      "My": 601,
      "bed": 602,
      "ms": 603,
      "ren": 604,
      "make": 605,
      "these": 606,
      "sure": 607,
      "work": 608,
      "bro": 609,
      "des": 610,
      "ﬁnd": 611,
      "pt": 612,
      "pass": 613,
      "appe": 614,
      "window": 615,
      "They": 616,
      "den": 617,
      "wa": 618,
      "care": 619,
      "od": 620,
      "take": 621,
      "anc": 622,
      "far": 623,
      "hard": 624,
      "got": 625,
      "cu": 626,
      "gu": 627,
      "wr": 628,
      "don": 629,
      "ness": 630,
      "inst": 631,
      "clo": 632,
      ".’": 633,
      "vo": 634,
      "pap": 635,
      "On": 636,
      "took": 637,
      "himself": 638,
      "reet": 639,
      "looked": 640,
      "cur": 641,
      "til": 642,
      "lad": 643,
      "ting": 644,
      "hel": 645,
      "yet": 646,
      "morning": 647,
      "gg": 648,
      "hen": 649,
      "sur": 650,
      "pres": 651,
      "ef": 652,
      "try": 653,
      "ions": 654,
      "call": 655,
      "les": 656,
      "place": 657,
      "give": 658,
      "until": 659,
      "low": 660,
      "ple": 661,
      "still": 662,
      "clear": 663,
      "certain": 664,
      "ev": 665,
      "young": 666,
      "chi": 667,
      "possi": 668,
      "As": 669,
      "sat": 670,
      "tak": 671,
      "done": 672,
      "ily": 673,
      "ose": 674,
      "reas": 675,
      "full": 676,
      "ies": 677,
      "woman": 678,
      "mber": 679,
      "att": 680,
      "thy": 681,
      "three": 682,
      "venture": 683,
      "beg": 684,
      "seen": 685,
      "raw": 686,
      "How": 687,
      "mon": 688,
      "cor": 689,
      "knew": 690,
      "set": 691,
      "Ad": 692,
      "Pe": 693,
      "dou": 694,
      "mind": 695,
      "year": 696,
      "oot": 697,
      "however": 698,
      "ready": 699,
      "lay": 700,
      "pi": 701,
      "wat": 702,
      "quite": 703,
      "course": 704,
      "ped": 705,
      "walk": 706,
      "same": 707,
      "His": 708,
      "ton": 709,
      "part": 710,
      "tic": 711,
      "When": 712,
      "land": 713,
      "oc": 714,
      "ery": 715,
      "show": 716,
      "hands": 717,
      "remark": 718,
      "Now": 719,
      "sup": 720,
      "str": 721,
      "life": 722,
      "Peter": 723,
      "ways": 724,
      "hor": 725,
      "av": 726,
      "ious": 727,
      "name": 728,
      "though": 729,
      "small": 730,
      "dark": 731,
      "der": 732,
      "bt": 733,
      "want": 734,
      "ross": 735,
      "pect": 736,
      "ten": 737,
      "quest": 738,
      "seemed": 739,
      "sin": 740,
      "something": 741,
      "Of": 742,
      "ling": 743,
      "aw": 744,
      "bus": 745,
      "without": 746,
      "moment": 747,
      "few": 748,
      "open": 749,
      "turned": 750,
      "hour": 751,
      "fact": 752,
      "wait": 753,
      "je": 754,
      "vis": 755,
      "wered": 756,
      "while": 757,
      "lt": 758,
      "enough": 759,
      "ctor": 760,
      "ual": 761,
      "ched": 762,
      "told": 763,
      "gi": 764,
      "myself": 765,
      "gn": 766,
      "stran": 767,
      "used": 768,
      "?\"": 769,
      "half": 770,
      "those": 771,
      "kn": 772,
      "follow": 773,
      "ident": 774,
      "Sher": 775,
      "dy": 776,
      ",’": 777,
      "At": 778,
      "Alice": 779,
      "happ": 780,
      "Adventure": 781,
      "tood": 782,
      "lady": 783,
      "sol": 784,
      "step": 785,
      "against": 786,
      "iz": 787,
      "Dor": 788,
      "gent": 789,
      "dress": 790,
      "rew": 791,
      "sho": 792,
      "doubt": 793,
      "lie": 794,
      "answered": 795,
      "return": 796,
      "ont": 797,
      "Mc": 798,
      "inte": 799,
      "par": 800,
      "table": 801,
      "ular": 802,
      "cent": 803,
      "dif": 804,
      "spo": 805,
      "reme": 806,
      "Sherlock": 807,
      "heart": 808,
      "ank": 809,
      "To": 810,
      "rather": 811,
      "ween": 812,
      "interest": 813,
      "mark": 814,
      "mur": 815,
      "ished": 816,
      "ition": 817,
      "qui": 818,
      "fr": 819,
      "ined": 820,
      "tive": 821,
      "Mor": 822,
      "um": 823,
      "gether": 824,
      "ail": 825,
      "dden": 826,
      "ings": 827,
      "cause": 828,
      "nat": 829,
      "vill": 830,
      "Mrs": 831,
      "help": 832,
      "hear": 833,
      "sil": 834,
      "ained": 835,
      "anger": 836,
      "always": 837,
      "gave": 838,
      "sing": 839,
      "ised": 840,
      "dear": 841,
      "Why": 842,
      "bre": 843,
      "lar": 844,
      "inc": 845,
      "Lond": 846,
      "also": 847,
      "London": 848,
      "Oh": 849,
      "ned": 850,
      "letter": 851,
      "chair": 852,
      "hind": 853,
      "draw": 854,
      "wards": 855,
      "pose": 856,
      "Sir": 857,
      "iness": 858,
      "possible": 859,
      "cons": 860,
      "fair": 861,
      "pped": 862,
      "rep": 863,
      "fort": 864,
      "lic": 865,
      "instant": 866,
      "Wend": 867,
      "together": 868,
      "police": 869,
      "Wendy": 870,
      "cr": 871,
      "hur": 872,
      "stood": 873,
      "ute": 874,
      "many": 875,
      "exam": 876,
      "For": 877,
      "between": 878,
      "Doro": 879,
      "fellow": 880,
      "whole": 881,
      "bit": 882,
      "being": 883,
      "near": 884,
      "ﬁc": 885,
      "reason": 886,
      "arm": 887,
      "ged": 888,
      "gone": 889,
      "cond": 890,
      "anything": 891,
      "ire": 892,
      "Jo": 893,
      "ek": 894,
      "appear": 895,
      "char": 896,
      "ec": 897,
      "run": 898,
      "ins": 899,
      "black": 900,
      "ered": 901,
      "det": 902,
      "Dorothy": 903,
      "crow": 904,
      "behind": 905,
      "ﬁn": 906,
      "reg": 907,
      "voice": 908,
      "Th": 909,
      "sudden": 910,
      "child": 911,
      "inde": 912,
      "since": 913,
      "00": 914,
      "press": 915,
      "ER": 916,
      "evening": 917,
      "cont": 918,
      "All": 919,
      "hite": 920,
      "form": 921,
      "mar": 922,
      "why": 923,
      "haps": 924,
      "years": 925,
      "sec": 926,
      "nex": 927,
      "shi": 928,
      "boy": 929,
      "taken": 930,
      "ger": 931,
      "start": 932,
      "irl": 933,
      "gentle": 934,
      "Dr": 935,
      "brought": 936,
      "present": 937,
      "father": 938,
      "paper": 939,
      "jo": 940,
      "eas": 941,
      "lat": 942,
      "dead": 943,
      "passed": 944,
      "fully": 945,
      "dist": 946,
      "wife": 947,
      "ew": 948,
      "soon": 949,
      "expl": 950,
      "az": 951,
      "inter": 952,
      "another": 953,
      "cannot": 954,
      "sel": 955,
      "each": 956,
      "ken": 957,
      "really": 958,
      "aid": 959,
      "ither": 960,
      "reen": 961,
      "sign": 962,
      "ached": 963,
      "words": 964,
      "leave": 965,
      "both": 966,
      "looking": 967,
      "hardly": 968,
      "ushed": 969,
      "death": 970,
      "known": 971,
      "ject": 972,
      "stru": 973,
      "body": 974,
      "dro": 975,
      "mean": 976,
      "fect": 977,
      "certainly": 978,
      "mas": 979,
      "business": 980,
      "dri": 981,
      "going": 982,
      "Be": 983,
      "strange": 984,
      "ures": 985,
      "hn": 986,
      "onder": 987,
      "better": 988,
      "country": 989,
      "keep": 990,
      "sle": 991,
      "ste": 992,
      "fear": 993,
      "comm": 994,
      "surpr": 995,
      "fre": 996,
      "John": 997,
      "Miss": 998,
      "nor": 999,
      "cess": 1000,
      "aged": 1001,
      "cket": 1002,
      "visit": 1003,
      "au": 1004,
      "tri": 1005,
      "ister": 1006,
      "does": 1007,
      "person": 1008,
      "already": 1009,
      "aced": 1010,
      "ool": 1011,
      "key": 1012,
      "En": 1013,
      "val": 1014,
      "ded": 1015,
      "fam": 1016,
      "across": 1017,
      "home": 1018,
      "pu": 1019,
      "need": 1020,
      "whom": 1021,
      "ber": 1022,
      "within": 1023,
      "large": 1024,
      "bu": 1025,
      "Street": 1026,
      "pow": 1027,
      "hold": 1028,
      "Do": 1029,
      "ofthe": 1030,
      "rious": 1031,
      "feel": 1032,
      "things": 1033,
      "pleas": 1034,
      "days": 1035,
      "tion": 1036,
      "ider": 1037,
      "TH": 1038,
      "book": 1039,
      "girl": 1040,
      "question": 1041,
      "next": 1042,
      "best": 1043,
      "compan": 1044,
      "cap": 1045,
      "outh": 1046,
      "sen": 1047,
      "road": 1048,
      "trade": 1049,
      "ff": 1050,
      "ention": 1051,
      "met": 1052,
      "indeed": 1053,
      "ations": 1054,
      "sw": 1055,
      "Co": 1056,
      "understand": 1057,
      "sed": 1058,
      "sent": 1059,
      "ably": 1060,
      "deep": 1061,
      "selves": 1062,
      "cab": 1063,
      "du": 1064,
      "tt": 1065,
      "belie": 1066,
      "obser": 1067,
      "bar": 1068,
      "white": 1069,
      "lled": 1070,
      "!\"": 1071,
      "Mur": 1072,
      "sit": 1073,
      "foot": 1074,
      "Engl": 1075,
      "THE": 1076,
      "pri": 1077,
      "feet": 1078,
      "among": 1079,
      "break": 1080,
      "danger": 1081,
      "sk": 1082,
      "exce": 1083,
      "band": 1084,
      "kind": 1085,
      "spector": 1086,
      "ced": 1087,
      "ung": 1088,
      "short": 1089,
      "ople": 1090,
      "strong": 1091,
      "Les": 1092,
      "ream": 1093,
      "opened": 1094,
      "front": 1095,
      "four": 1096,
      "pen": 1097,
      "One": 1098,
      "bur": 1099,
      "cli": 1100,
      "wood": 1101,
      "talk": 1102,
      "?’": 1103,
      "fall": 1104,
      "note": 1105,
      "ground": 1106,
      "lau": 1107,
      "gra": 1108,
      "papers": 1109,
      "An": 1110,
      "ts": 1111,
      "ener": 1112,
      "ird": 1113,
      "people": 1114,
      "wish": 1115,
      "col": 1116,
      "God": 1117,
      "answ": 1118,
      "dire": 1119,
      "called": 1120,
      "having": 1121,
      "ene": 1122,
      "rible": 1123,
      "sound": 1124,
      "ates": 1125,
      "ical": 1126,
      "Lestrade": 1127,
      "ris": 1128,
      "times": 1129,
      "ended": 1130,
      "ending": 1131,
      "world": 1132,
      "Inter": 1133,
      "ago": 1134,
      "feren": 1135,
      "story": 1136,
      "Book": 1137,
      "With": 1138,
      "held": 1139,
      "secret": 1140,
      "king": 1141,
      "miss": 1142,
      "Here": 1143,
      "hu": 1144,
      "uck": 1145,
      "oud": 1146,
      "pocket": 1147,
      "import": 1148,
      "ign": 1149,
      "AR": 1150,
      "eng": 1151,
      "lear": 1152,
      "moor": 1153,
      "play": 1154,
      "else": 1155,
      "yes": 1156,
      "began": 1157,
      "remember": 1158,
      "fast": 1159,
      "pa": 1160,
      "ster": 1161,
      "sage": 1162,
      "train": 1163,
      "expect": 1164,
      "vant": 1165,
      "ames": 1166,
      "tered": 1167,
      "speak": 1168,
      "appeared": 1169,
      "Murdo": 1170,
      "ND": 1171,
      "bes": 1172,
      "eld": 1173,
      "als": 1174,
      "Scare": 1175,
      "stair": 1176,
      "week": 1177,
      "coming": 1178,
      "answer": 1179,
      "whis": 1180,
      "hope": 1181,
      "walked": 1182,
      "Wood": 1183,
      "^^": 1184,
      "dr": 1185,
      "ofﬁ": 1186,
      "box": 1187,
      "crime": 1188,
      "close": 1189,
      "pur": 1190,
      "save": 1191,
      "abo": 1192,
      "lan": 1193,
      "Bar": 1194,
      "pat": 1195,
      "vol": 1196,
      "followed": 1197,
      "ald": 1198,
      "list": 1199,
      "ney": 1200,
      "consider": 1201,
      "Let": 1202,
      "net": 1203,
      "sus": 1204,
      "high": 1205,
      "along": 1206,
      "que": 1207,
      "imag": 1208,
      "ervill": 1209,
      "ital": 1210,
      "second": 1211,
      "love": 1212,
      "temp": 1213,
      "aut": 1214,
      "ather": 1215,
      "—”": 1216,
      "water": 1217,
      "spoke": 1218,
      "fer": 1219,
      "late": 1220,
      "ofess": 1221,
      "master": 1222,
      "believe": 1223,
      "past": 1224,
      "poor": 1225,
      "quar": 1226,
      "blood": 1227,
      "ﬁcul": 1228,
      "cut": 1229,
      "utes": 1230,
      "uring": 1231,
      "emp": 1232,
      "position": 1233,
      "showed": 1234,
      "returned": 1235,
      "bly": 1236,
      "amp": 1237,
      "sugg": 1238,
      "cted": 1239,
      "cial": 1240,
      "law": 1241,
      "cal": 1242,
      "cry": 1243,
      "vered": 1244,
      "difﬁcul": 1245,
      "ush": 1246,
      "ches": 1247,
      "ile": 1248,
      "ls": 1249,
      "ring": 1250,
      "reco": 1251,
      "Is": 1252,
      "prom": 1253,
      "ains": 1254,
      "dog": 1255,
      "sub": 1256,
      "rang": 1257,
      "actly": 1258,
      "won": 1259,
      "ﬁve": 1260,
      "hall": 1261,
      "yourself": 1262,
      "By": 1263,
      "cy": 1264,
      "war": 1265,
      "wonder": 1266,
      "askervill": 1267,
      "facts": 1268,
      "Scarecrow": 1269,
      "Baskervill": 1270,
      "least": 1271,
      "suddenly": 1272,
      "ently": 1273,
      "iled": 1274,
      "tru": 1275,
      "lost": 1276,
      "either": 1277,
      "entered": 1278,
      "udy": 1279,
      "minutes": 1280,
      "attention": 1281,
      "ating": 1282,
      "street": 1283,
      "mother": 1284,
      "felt": 1285,
      "cked": 1286,
      "bring": 1287,
      "McMurdo": 1288,
      "Ah": 1289,
      "hon": 1290,
      "remarked": 1291,
      "companion": 1292,
      "Ex": 1293,
      "mis": 1294,
      "nar": 1295,
      "stone": 1296,
      "idea": 1297,
      "given": 1298,
      "sun": 1299,
      "reached": 1300,
      "aring": 1301,
      "beaut": 1302,
      "quick": 1303,
      "wall": 1304,
      "ones": 1305,
      "cei": 1306,
      "chance": 1307,
      "exc": 1308,
      "view": 1309,
      "aces": 1310,
      "true": 1311,
      "seems": 1312,
      "fas": 1313,
      "gri": 1314,
      "hus": 1315,
      "sor": 1316,
      "because": 1317,
      "riage": 1318,
      "Hen": 1319,
      "Pr": 1320,
      "oor": 1321,
      "idence": 1322,
      "conf": 1323,
      "ments": 1324,
      "comple": 1325,
      "suppose": 1326,
      "mak": 1327,
      "pret": 1328,
      "glad": 1329,
      "Cor": 1330,
      "ces": 1331,
      "swe": 1332,
      "oft": 1333,
      "oney": 1334,
      "ually": 1335,
      "tra": 1336,
      "anced": 1337,
      "clock": 1338,
      "real": 1339,
      "Lion": 1340,
      "ror": 1341,
      "shad": 1342,
      "ows": 1343,
      "fell": 1344,
      "perhaps": 1345,
      "brother": 1346,
      "Henry": 1347,
      "eag": 1348,
      "ching": 1349,
      "accoun": 1350,
      "ext": 1351,
      "struck": 1352,
      "simp": 1353,
      "contin": 1354,
      "ding": 1355,
      "rid": 1356,
      "ison": 1357,
      "suc": 1358,
      "Char": 1359,
      "mid": 1360,
      "sever": 1361,
      "adm": 1362,
      "irst": 1363,
      "herself": 1364,
      "aker": 1365,
      "vice": 1366,
      "DO": 1367,
      "itting": 1368,
      "husband": 1369,
      "ze": 1370,
      "ries": 1371,
      "lod": 1372,
      "ia": 1373,
      "ange": 1374,
      "six": 1375,
      "prob": 1376,
      "ordin": 1377,
      "avy": 1378,
      "waiting": 1379,
      "sight": 1380,
      "shar": 1381,
      "alone": 1382,
      "glass": 1383,
      "power": 1384,
      "Who": 1385,
      "line": 1386,
      "maid": 1387,
      "money": 1388,
      "leg": 1389,
      "whether": 1390,
      "cus": 1391,
      "pick": 1392,
      "order": 1393,
      "occur": 1394,
      "above": 1395,
      "Have": 1396,
      "Our": 1397,
      "fur": 1398,
      "sli": 1399,
      "ham": 1400,
      "onel": 1401,
      "kept": 1402,
      "trou": 1403,
      "solute": 1404,
      "gentleman": 1405,
      "Bo": 1406,
      "WI": 1407,
      "Your": 1408,
      "wit": 1409,
      "ﬁre": 1410,
      "comes": 1411,
      "deal": 1412,
      "sult": 1413,
      "corner": 1414,
      "later": 1415,
      "Col": 1416,
      "Per": 1417,
      "bad": 1418,
      "lead": 1419,
      "suggest": 1420,
      "path": 1421,
      "sort": 1422,
      "Some": 1423,
      "ited": 1424,
      "affair": 1425,
      "Not": 1426,
      "quiet": 1427,
      "WO": 1428,
      "hair": 1429,
      "state": 1430,
      "eye": 1431,
      "tothe": 1432,
      "towards": 1433,
      "hion": 1434,
      "murder": 1435,
      "Where": 1436,
      "ZAR": 1437,
      "heavy": 1438,
      "WIZAR": 1439,
      "WOND": 1440,
      "FO": 1441,
      "FU": 1442,
      "ience": 1443,
      "ining": 1444,
      "owed": 1445,
      "rel": 1446,
      "sum": 1447,
      "carried": 1448,
      "several": 1449,
      "WIZARDO": 1450,
      "during": 1451,
      "hund": 1452,
      "ial": 1453,
      "sy": 1454,
      "ars": 1455,
      "ution": 1456,
      "cold": 1457,
      "express": 1458,
      "hundred": 1459,
      "Nor": 1460,
      "ler": 1461,
      "lied": 1462,
      "exper": 1463,
      "curious": 1464,
      "children": 1465,
      "Come": 1466,
      "Pat": 1467,
      "nu": 1468,
      "tle": 1469,
      "meet": 1470,
      "others": 1471,
      "WONDER": 1472,
      "ier": 1473,
      "arch": 1474,
      "vious": 1475,
      "Woodman": 1476,
      "sitting": 1477,
      "ye": 1478,
      "alley": 1479,
      "doing": 1480,
      "app": 1481,
      ".\"\"": 1482,
      "WIZARDOFO": 1483,
      "WONDERFU": 1484,
      "lit": 1485,
      "irt": 1486,
      "seem": 1487,
      "evident": 1488,
      "ordinary": 1489,
      "cat": 1490,
      "gy": 1491,
      "mad": 1492,
      "arden": 1493,
      "likely": 1494,
      "WIZARDOFOZ": 1495,
      "Did": 1496,
      "Good": 1497,
      "cir": 1498,
      "theScarecrow": 1499,
      "erved": 1500,
      "tow": 1501,
      "ghter": 1502,
      "manner": 1503,
      "natur": 1504,
      "Ro": 1505,
      "mist": 1506,
      "safe": 1507,
      "terrible": 1508,
      "lose": 1509,
      "ards": 1510,
      "remarkable": 1511,
      "mil": 1512,
      "mouth": 1513,
      "none": 1514,
      "tou": 1515,
      "tried": 1516,
      "ert": 1517,
      "ering": 1518,
      "ash": 1519,
      "outside": 1520,
      "wild": 1521,
      "impress": 1522,
      "appearance": 1523,
      "Amer": 1524,
      "ents": 1525,
      "coat": 1526,
      "shot": 1527,
      "THEWONDERFU": 1528,
      "Ho": 1529,
      "big": 1530,
      "smo": 1531,
      "rose": 1532,
      "lying": 1533,
      "forward": 1534,
      "ety": 1535,
      "ately": 1536,
      "crimin": 1537,
      "sleep": 1538,
      "surprise": 1539,
      "quarter": 1540,
      "Ameri": 1541,
      "Hook": 1542,
      "Oz": 1543,
      "ild": 1544,
      "igh": 1545,
      "slow": 1546,
      "tly": 1547,
      "ught": 1548,
      "ﬂoor": 1549,
      "sprang": 1550,
      "account": 1551,
      "sharp": 1552,
      "ump": 1553,
      "means": 1554,
      "vers": 1555,
      "address": 1556,
      "happy": 1557,
      "beside": 1558,
      "truth": 1559,
      "fashion": 1560,
      "Colonel": 1561,
      "ﬁng": 1562,
      "rer": 1563,
      "lea": 1564,
      "ley": 1565,
      "whose": 1566,
      "ized": 1567,
      "family": 1568,
      "direction": 1569,
      "cord": 1570,
      "une": 1571,
      "vic": 1572,
      "arms": 1573,
      "trust": 1574,
      "happened": 1575,
      "steps": 1576,
      "Sc": 1577,
      "carry": 1578,
      "writ": 1579,
      "nearly": 1580,
      "Hall": 1581,
      "kill": 1582,
      "ons": 1583,
      "ory": 1584,
      "coll": 1585,
      "tig": 1586,
      "feat": 1587,
      "everything": 1588,
      "stairs": 1589,
      "Don": 1590,
      "ﬁg": 1591,
      "itch": 1592,
      "rooms": 1593,
      "fresh": 1594,
      "complete": 1595,
      "Se": 1596,
      "drew": 1597,
      "pull": 1598,
      "stri": 1599,
      "ceed": 1600,
      "till": 1601,
      "tel": 1602,
      "standing": 1603,
      "month": 1604,
      "detail": 1605,
      "ian": 1606,
      "bey": 1607,
      "wel": 1608,
      "Br": 1609,
      "event": 1610,
      "green": 1611,
      "stery": 1612,
      "iful": 1613,
      "anyone": 1614,
      "occas": 1615,
      "King": 1616,
      "Qu": 1617,
      "Very": 1618,
      "creat": 1619,
      "ides": 1620,
      "track": 1621,
      "conﬁ": 1622,
      "blem": 1623,
      "profess": 1624,
      "servant": 1625,
      "singular": 1626,
      "bri": 1627,
      "win": 1628,
      "usual": 1629,
      "sive": 1630,
      "evidence": 1631,
      "silence": 1632,
      "ship": 1633,
      "first": 1634,
      "mine": 1635,
      "rushed": 1636,
      "ses": 1637,
      "oured": 1638,
      "arri": 1639,
      "bell": 1640,
      "liar": 1641,
      "doctor": 1642,
      "prac": 1643,
      "000": 1644,
      "visitor": 1645,
      "Re": 1646,
      "Res": 1647,
      "ked": 1648,
      "pas": 1649,
      "pic": 1650,
      "rat": 1651,
      "almost": 1652,
      "fright": 1653,
      "Right": 1654,
      "garden": 1655,
      "inves": 1656,
      "lips": 1657,
      "acter": 1658,
      "cla": 1659,
      "ledge": 1660,
      "grave": 1661,
      "From": 1662,
      "cig": 1663,
      "zz": 1664,
      "absolute": 1665,
      "conne": 1666,
      "ancy": 1667,
      "hours": 1668,
      "drawn": 1669,
      "Lord": 1670,
      "ﬁed": 1671,
      "covered": 1672,
      "cious": 1673,
      "laid": 1674,
      "friends": 1675,
      "horse": 1676,
      "occurred": 1677,
      "ﬁgure": 1678,
      "dle": 1679,
      "port": 1680,
      "tall": 1681,
      "ane": 1682,
      "cho": 1683,
      "closed": 1684,
      "town": 1685,
      "cast": 1686,
      "pain": 1687,
      "tre": 1688,
      "live": 1689,
      "itted": 1690,
      "gged": 1691,
      "detec": 1692,
      "Baker": 1693,
      "Car": 1694,
      "ece": 1695,
      "top": 1696,
      "andthe": 1697,
      "mere": 1698,
      "started": 1699,
      "aven": 1700,
      "hes": 1701,
      "study": 1702,
      "seven": 1703,
      "soci": 1704,
      "tele": 1705,
      "ticular": 1706,
      "differen": 1707,
      "cross": 1708,
      "gle": 1709,
      "raid": 1710,
      "bled": 1711,
      "rank": 1712,
      "pub": 1713,
      "England": 1714,
      "occasion": 1715,
      "investig": 1716,
      "bright": 1717,
      "tom": 1718,
      "station": 1719,
      "caught": 1720,
      "itten": 1721,
      "grap": 1722,
      "guess": 1723,
      "character": 1724,
      "Ind": 1725,
      "James": 1726,
      "oul": 1727,
      "llent": 1728,
      "arling": 1729,
      "thin": 1730,
      "dered": 1731,
      "board": 1732,
      "ib": 1733,
      "sl": 1734,
      "ued": 1735,
      "ination": 1736,
      "usion": 1737,
      "unt": 1738,
      "morrow": 1739,
      "taking": 1740,
      "eager": 1741,
      "Charles": 1742,
      "irtual": 1743,
      "Mon": 1744,
      "dread": 1745,
      "thes": 1746,
      "often": 1747,
      "stra": 1748,
      "became": 1749,
      "velo": 1750,
      "change": 1751,
      "oose": 1752,
      "iling": 1753,
      "client": 1754,
      "LWIZARDOFOZ": 1755,
      "threw": 1756,
      "entire": 1757,
      "worth": 1758,
      "broken": 1759,
      "particular": 1760,
      "Virtual": 1761,
      "jour": 1762,
      "vil": 1763,
      "rock": 1764,
      "tim": 1765,
      "action": 1766,
      "ances": 1767,
      "begin": 1768,
      "pair": 1769,
      "anx": 1770,
      "lived": 1771,
      "placed": 1772,
      "igital": 1773,
      "broad": 1774,
      "wrong": 1775,
      "waited": 1776,
      "BookVirtual": 1777,
      "Corp": 1778,
      "burn": 1779,
      "kne": 1780,
      "spr": 1781,
      "result": 1782,
      "stick": 1783,
      "ourselves": 1784,
      "conce": 1785,
      "extra": 1786,
      "common": 1787,
      "cases": 1788,
      "viol": 1789,
      "effect": 1790,
      "boys": 1791,
      "easy": 1792,
      "beautiful": 1793,
      "straight": 1794,
      "Nav": 1795,
      "Sm": 1796,
      "lamp": 1797,
      "sion": 1798,
      "timer": 1799,
      "loy": 1800,
      "smile": 1801,
      "ption": 1802,
      "English": 1803,
      "Her": 1804,
      "Mo": 1805,
      "ah": 1806,
      "ele": 1807,
      "rol": 1808,
      "moved": 1809,
      "concl": 1810,
      "raised": 1811,
      "Inspector": 1812,
      "examined": 1813,
      "surprised": 1814,
      "imagine": 1815,
      "2000": 1816,
      "TER": 1817,
      "bird": 1818,
      "rap": 1819,
      "ured": 1820,
      "stay": 1821,
      "owing": 1822,
      "getting": 1823,
      "wanted": 1824,
      "laugh": 1825,
      "suspic": 1826,
      "trouble": 1827,
      "Perhaps": 1828,
      "public": 1829,
      "Sco": 1830,
      "cup": 1831,
      "eper": 1832,
      "gain": 1833,
      "gener": 1834,
      "tw": 1835,
      "inspector": 1836,
      "mystery": 1837,
      "therefore": 1838,
      "ility": 1839,
      "perfect": 1840,
      "afraid": 1841,
      "object": 1842,
      "obvious": 1843,
      "wenty": 1844,
      "descri": 1845,
      "drive": 1846,
      "ceived": 1847,
      "Patent": 1848,
      "THEWONDERFULWIZARDOFOZ": 1849,
      "entirely": 1850,
      "Dou": 1851,
      "Digital": 1852,
      "Pending": 1853,
      "Sho": 1854,
      "ible": 1855,
      "pet": 1856,
      "inside": 1857,
      "reach": 1858,
      "itself": 1859,
      "glas": 1860,
      "news": 1861,
      "letters": 1862,
      "fortun": 1863,
      "features": 1864,
      "Ar": 1865,
      "xed": 1866,
      "tory": 1867,
      "aint": 1868,
      "appro": 1869,
      "ult": 1870,
      "gold": 1871,
      "points": 1872,
      "satis": 1873,
      "watch": 1874,
      "aze": 1875,
      "confess": 1876,
      "Cont": 1877,
      "Darling": 1878,
      "Will": 1879,
      "ﬁt": 1880,
      "ana": 1881,
      "shut": 1882,
      "igate": 1883,
      "report": 1884,
      "Interface": 1885,
      "Reserved": 1886,
      "Rights": 1887,
      "!’": 1888,
      "Af": 1889,
      "ale": 1890,
      "ady": 1891,
      "formed": 1892,
      "saidthe": 1893,
      "early": 1894,
      "Off": 1895,
      "silent": 1896,
      "important": 1897,
      "Tin": 1898,
      "game": 1899,
      "ided": 1900,
      "These": 1901,
      "tern": 1902,
      "shook": 1903,
      "conv": 1904,
      "resp": 1905,
      "leton": 1906,
      "written": 1907,
      "learned": 1908,
      "success": 1909,
      "criminal": 1910,
      "City": 1911,
      "Fer": 1912,
      "Fit": 1913,
      "Mic": 1914,
      "gate": 1915,
      "tof": 1916,
      "post": 1917,
      "handed": 1918,
      "surely": 1919,
      "presence": 1920,
      "Baskerville": 1921,
      "pretty": 1922,
      "Sure": 1923,
      "Valley": 1924,
      "ub": 1925,
      "hael": 1926,
      "arrest": 1927,
      "move": 1928,
      "problem": 1929,
      "print": 1930,
      "marks": 1931,
      "hurried": 1932,
      "creature": 1933,
      "18": 1934,
      "bor": 1935,
      "hound": 1936,
      "jud": 1937,
      "ﬁne": 1938,
      "ref": 1939,
      "lean": 1940,
      "broke": 1941,
      "nature": 1942,
      "importance": 1943,
      "Michael": 1944,
      ";\"": 1945,
      "Un": 1946,
      "inform": 1947,
      "thick": 1948,
      "adv": 1949,
      "amed": 1950,
      "race": 1951,
      "reath": 1952,
      "serious": 1953,
      "Mortimer": 1954,
      "continued": 1955,
      "Douglas": 1956,
      "free": 1957,
      "theW": 1958,
      "inner": 1959,
      "oom": 1960,
      "gram": 1961,
      "pipe": 1962,
      "piece": 1963,
      "replied": 1964,
      "married": 1965,
      "slowly": 1966,
      "Full": 1967,
      "ied": 1968,
      "inthe": 1969,
      "ities": 1970,
      "third": 1971,
      "become": 1972,
      "incident": 1973,
      "observed": 1974,
      "picked": 1975,
      "writing": 1976,
      "journey": 1977,
      "CH": 1978,
      "Que": 1979,
      "kins": 1980,
      "twenty": 1981,
      "arker": 1982,
      "aware": 1983,
      "making": 1984,
      "shadow": 1985,
      "yellow": 1986,
      "Close": 1987,
      "kno": 1988,
      "pes": 1989,
      "rup": 1990,
      "sess": 1991,
      "send": 1992,
      "sister": 1993,
      "sequ": 1994,
      "apped": 1995,
      "minute": 1996,
      "carriage": 1997,
      "gen": 1998,
      "ph": 1999,
      "terday": 2000,
      "cover": 2001,
      "indic": 2002,
      "shoulders": 2003,
      "knows": 2004,
      "glanced": 2005,
      "Stap": 2006,
      "spir": 2007,
      "died": 2008,
      "pointed": 2009,
      "natural": 2010,
      "passage": 2011,
      "trees": 2012,
      "Coun": 2013,
      "Never": 2014,
      "nest": 2015,
      "ase": 2016,
      "ens": 2017,
      "around": 2018,
      "thor": 2019,
      "neigh": 2020,
      "message": 2021,
      "trave": 2022,
      "Thank": 2023,
      "breakfast": 2024,
      "expression": 2025,
      "conﬁd": 2026,
      "May": 2027,
      "boot": 2028,
      "ening": 2029,
      "unch": 2030,
      "knowledge": 2031,
      "earth": 2032,
      "Internet": 2033,
      "ofﬁce": 2034,
      "ges": 2035,
      "ghed": 2036,
      "nur": 2037,
      "thod": 2038,
      "stret": 2039,
      "rope": 2040,
      "exactly": 2041,
      "guard": 2042,
      "clearly": 2043,
      "Page": 2044,
      "bank": 2045,
      "breath": 2046,
      "fancy": 2047,
      "gro": 2048,
      "treat": 2049,
      "lies": 2050,
      "shown": 2051,
      "possess": 2052,
      "cient": 2053,
      "says": 2054,
      "afterwards": 2055,
      "scream": 2056,
      "interesting": 2057,
      "explan": 2058,
      "further": 2059,
      "Screen": 2060,
      "detective": 2061,
      "graph": 2062,
      "Navigate": 2063,
      "Control": 2064,
      "TinWoodman": 2065,
      "AP": 2066,
      "cru": 2067,
      "dau": 2068,
      "pay": 2069,
      "uff": 2070,
      "beard": 2071,
      "mode": 2072,
      "keen": 2073,
      "impossible": 2074,
      "sense": 2075,
      "human": 2076,
      "dreadful": 2077,
      "West": 2078,
      "ax": 2079,
      "bb": 2080,
      "gli": 2081,
      "ker": 2082,
      "pol": 2083,
      "squ": 2084,
      "pered": 2085,
      "plain": 2086,
      "themselves": 2087,
      "blue": 2088,
      "prison": 2089,
      "bedroom": 2090,
      "single": 2091,
      "simple": 2092,
      "CHAP": 2093,
      "Queen": 2094,
      "CHAPTER": 2095,
      "Was": 2096,
      "cand": 2097,
      "ga": 2098,
      "ping": 2099,
      "attemp": 2100,
      "method": 2101,
      "ury": 2102,
      "onet": 2103,
      "acted": 2104,
      "clean": 2105,
      "windows": 2106,
      "possibly": 2107,
      "lodge": 2108,
      "different": 2109,
      "iv": 2110,
      "edge": 2111,
      "aled": 2112,
      "const": 2113,
      "dressed": 2114,
      "dropped": 2115,
      "pale": 2116,
      "Exactly": 2117,
      "details": 2118,
      "extraordinary": 2119,
      "Man": 2120,
      "cou": 2121,
      "dare": 2122,
      "fol": 2123,
      "ying": 2124,
      "atter": 2125,
      "irty": 2126,
      "someone": 2127,
      "isted": 2128,
      "medi": 2129,
      "explain": 2130,
      "agedy": 2131,
      "feeling": 2132,
      "dangerous": 2133,
      "probably": 2134,
      "Cap": 2135,
      "Du": 2136,
      "Le": 2137,
      "bound": 2138,
      "cro": 2139,
      "ug": 2140,
      "vate": 2141,
      "ingly": 2142,
      "arran": 2143,
      "ford": 2144,
      "ages": 2145,
      "gray": 2146,
      "longer": 2147,
      "scene": 2148,
      "ancing": 2149,
      "chief": 2150,
      "However": 2151,
      "horror": 2152,
      "ize": 2153,
      "miles": 2154,
      "American": 2155,
      "Can": 2156,
      "hung": 2157,
      "pir": 2158,
      "rough": 2159,
      "revol": 2160,
      "dec": 2161,
      "devil": 2162,
      "ishment": 2163,
      "McG": 2164,
      "marked": 2165,
      "gentlemen": 2166,
      "situ": 2167,
      "leaving": 2168,
      "dut": 2169,
      "gas": 2170,
      "pound": 2171,
      "treas": 2172,
      "ines": 2173,
      "chool": 2174,
      "added": 2175,
      "inty": 2176,
      "Nothing": 2177,
      "easily": 2178,
      "azed": 2179,
      "drove": 2180,
      "listened": 2181,
      "daughter": 2182,
      "McGinty": 2183,
      "nine": 2184,
      "os": 2185,
      "ues": 2186,
      "beast": 2187,
      "ables": 2188,
      "contr": 2189,
      "shoulder": 2190,
      "glance": 2191,
      "opin": 2192,
      "questions": 2193,
      "empty": 2194,
      "recogn": 2195,
      "middle": 2196,
      "impression": 2197,
      "telegram": 2198,
      "Ab": 2199,
      "Look": 2200,
      "ired": 2201,
      "pan": 2202,
      "wed": 2203,
      "ashed": 2204,
      "iron": 2205,
      "deter": 2206,
      "concer": 2207,
      "clue": 2208,
      "thinking": 2209,
      "carefully": 2210,
      "touch": 2211,
      "pulled": 2212,
      "After": 2213,
      "fac": 2214,
      "faced": 2215,
      "ming": 2216,
      "neck": 2217,
      "ague": 2218,
      "olo": 2219,
      "tragedy": 2220,
      "produ": 2221,
      "els": 2222,
      "locked": 2223,
      "ctions": 2224,
      "cum": 2225,
      "subject": 2226,
      "evidently": 2227,
      "months": 2228,
      "absolutely": 2229,
      "Ma": 2230,
      "card": 2231,
      "cul": 2232,
      "hang": 2233,
      "luck": 2234,
      "lling": 2235,
      "unning": 2236,
      "remained": 2237,
      "employ": 2238,
      "promise": 2239,
      "anxious": 2240,
      "Fear": 2241,
      "dest": 2242,
      "dream": 2243,
      "ife": 2244,
      "ﬁf": 2245,
      "sake": 2246,
      "loved": 2247,
      "bling": 2248,
      "remain": 2249,
      "Toto": 2250,
      "laughed": 2251,
      "yesterday": 2252,
      "beyond": 2253,
      "events": 2254,
      "profession": 2255,
      "treasure": 2256,
      "opinion": 2257,
      "Just": 2258,
      "bour": 2259,
      "furn": 2260,
      "vous": 2261,
      "wise": 2262,
      "ceive": 2263,
      "weak": 2264,
      "aded": 2265,
      "neither": 2266,
      "necess": 2267,
      "motion": 2268,
      "dep": 2269,
      "respect": 2270,
      "wice": 2271,
      "turning": 2272,
      "Only": 2273,
      "walking": 2274,
      "centre": 2275,
      "running": 2276,
      "explained": 2277,
      "Baskervilles": 2278,
      "number": 2279,
      "20": 2280,
      "Bl": 2281,
      "Gar": 2282,
      "tin": 2283,
      "yed": 2284,
      "inqui": 2285,
      "quir": 2286,
      "yours": 2287,
      "mention": 2288,
      "didn": 2289,
      "posed": 2290,
      "company": 2291,
      "build": 2292,
      "Any": 2293,
      "considerable": 2294,
      "difﬁculty": 2295,
      "sorry": 2296,
      "investigation": 2297,
      "information": 2298,
      ",—": 2299,
      "Bro": 2300,
      "Barker": 2301,
      "ient": 2302,
      "chang": 2303,
      "noon": 2304,
      "advice": 2305,
      "notice": 2306,
      "ties": 2307,
      "suit": 2308,
      "ilver": 2309,
      "assist": 2310,
      "tained": 2311,
      "stopped": 2312,
      "difﬁcult": 2313,
      "test": 2314,
      "var": 2315,
      "rey": 2316,
      "vert": 2317,
      "fav": 2318,
      "blow": 2319,
      "saying": 2320,
      "spot": 2321,
      "Because": 2322,
      "learn": 2323,
      "expected": 2324,
      "Hound": 2325,
      "Jack": 2326,
      "fate": 2327,
      "agged": 2328,
      "ouses": 2329,
      "harm": 2330,
      "brain": 2331,
      "darkness": 2332,
      "Three": 2333,
      "distance": 2334,
      "Every": 2335,
      "Ha": 2336,
      "Tink": 2337,
      "fool": 2338,
      "slight": 2339,
      "ﬂe": 2340,
      "theory": 2341,
      "ann": 2342,
      "isto": 2343,
      "ors": 2344,
      "memor": 2345,
      "stan": 2346,
      "beat": 2347,
      "roof": 2348,
      "aston": 2349,
      "spent": 2350,
      "excellent": 2351,
      "burst": 2352,
      "colour": 2353,
      "ushing": 2354,
      "slip": 2355,
      "spring": 2356,
      "explanation": 2357,
      "revolver": 2358,
      "Greg": 2359,
      "Lady": 2360,
      "Mac": 2361,
      "Str": 2362,
      "bull": 2363,
      "ell": 2364,
      "hum": 2365,
      "ony": 2366,
      "assu": 2367,
      "utter": 2368,
      "rier": 2369,
      "aren": 2370,
      "tired": 2371,
      "ends": 2372,
      "cape": 2373,
      "evil": 2374,
      "tical": 2375,
      "queer": 2376,
      "Stapleton": 2377,
      "Al": 2378,
      "cre": 2379,
      "gun": 2380,
      "mag": 2381,
      "tree": 2382,
      "wished": 2383,
      "hast": 2384,
      "sea": 2385,
      "rich": 2386,
      "sold": 2387,
      "pecu": 2388,
      "sometimes": 2389,
      "ousand": 2390,
      "prove": 2391,
      "brown": 2392,
      "prevent": 2393,
      "croft": 2394,
      "dedu": 2395,
      "swif": 2396,
      "ﬁnger": 2397,
      "arrived": 2398,
      "fortunate": 2399,
      "situation": 2400,
      "Witch": 2401,
      "bted": 2402,
      "houses": 2403,
      "ie": 2404,
      "wound": 2405,
      "vel": 2406,
      "arer": 2407,
      "derer": 2408,
      "plan": 2409,
      "goes": 2410,
      "bot": 2411,
      "brid": 2412,
      "clothes": 2413,
      "knife": 2414,
      "killed": 2415,
      "Surely": 2416,
      "folk": 2417,
      "Hop": 2418,
      "bac": 2419,
      "eight": 2420,
      "fat": 2421,
      "ky": 2422,
      "lto": 2423,
      "wro": 2424,
      "ince": 2425,
      "assure": 2426,
      "thousand": 2427,
      "search": 2428,
      "keeper": 2429,
      "amaze": 2430,
      "lot": 2431,
      "appoint": 2432,
      "ﬁrm": 2433,
      "private": 2434,
      "perfectly": 2435,
      "Sholto": 2436,
      "wrote": 2437,
      "Even": 2438,
      "ead": 2439,
      "pal": 2440,
      "pushed": 2441,
      "sn": 2442,
      "soft": 2443,
      "van": 2444,
      "ﬁeld": 2445,
      "inj": 2446,
      "inquir": 2447,
      "repe": 2448,
      "bered": 2449,
      "idly": 2450,
      "weap": 2451,
      "force": 2452,
      "lives": 2453,
      "hot": 2454,
      "trans": 2455,
      "thank": 2456,
      "fortune": 2457,
      "engaged": 2458,
      "ofﬁcial": 2459,
      "Barry": 2460,
      "experience": 2461,
      "See": 2462,
      "10": 2463,
      "II": 2464,
      "Yet": 2465,
      "bust": 2466,
      "lone": 2467,
      "mit": 2468,
      "por": 2469,
      "sand": 2470,
      "received": 2471,
      "bear": 2472,
      "unless": 2473,
      "whatever": 2474,
      "proceed": 2475,
      "throw": 2476,
      "effort": 2477,
      "attack": 2478,
      "joy": 2479,
      "purpose": 2480,
      "peculiar": 2481,
      "Are": 2482,
      "House": 2483,
      "Iam": 2484,
      "Pro": 2485,
      "Yard": 2486,
      "fﬁ": 2487,
      "nes": 2488,
      "ot": 2489,
      "sof": 2490,
      "umb": 2491,
      "theLion": 2492,
      "inct": 2493,
      "hill": 2494,
      "nose": 2495,
      "sad": 2496,
      "sav": 2497,
      "living": 2498,
      "grass": 2499,
      "ears": 2500,
      "immedi": 2501,
      "nervous": 2502,
      "murderer": 2503,
      "puzz": 2504,
      "pleasant": 2505,
      "fallen": 2506,
      "huge": 2507,
      "Scot": 2508,
      "Four": 2509,
      "dim": 2510,
      "hun": 2511,
      "inﬂ": 2512,
      "record": 2513,
      "habit": 2514,
      "meant": 2515,
      "stre": 2516,
      "sheet": 2517,
      "tee": 2518,
      "smiled": 2519,
      "pping": 2520,
      "write": 2521,
      "pict": 2522,
      "inced": 2523,
      "except": 2524,
      "versation": 2525,
      "colle": 2526,
      "16": 2527,
      "LE": 2528,
      "Lod": 2529,
      "fut": 2530,
      "fun": 2531,
      "school": 2532,
      "inally": 2533,
      "thro": 2534,
      "ously": 2535,
      "proved": 2536,
      "tains": 2537,
      "ference": 2538,
      "weeks": 2539,
      "frightened": 2540,
      "Smith": 2541,
      "lonely": 2542,
      "14": 2543,
      "Whi": 2544,
      "cise": 2545,
      "gan": 2546,
      "gest": 2547,
      "pack": 2548,
      "soul": 2549,
      "ﬂed": 2550,
      "rect": 2551,
      "asle": 2552,
      "seated": 2553,
      "forgot": 2554,
      "deli": 2555,
      "shout": 2556,
      "trace": 2557,
      "convi": 2558,
      "somewhat": 2559,
      "seeing": 2560,
      "service": 2561,
      "spect": 2562,
      "instru": 2563,
      "appears": 2564,
      "marriage": 2565,
      "neighbour": 2566,
      "Gregson": 2567,
      "Ger": 2568,
      "Su": 2569,
      "imed": 2570,
      "leng": 2571,
      "ny": 2572,
      "pit": 2573,
      "tone": 2574,
      "orig": 2575,
      "thirty": 2576,
      "chin": 2577,
      "notic": 2578,
      "delight": 2579,
      "shru": 2580,
      "worn": 2581,
      "boat": 2582,
      "older": 2583,
      "merald": 2584,
      "mined": 2585,
      "trying": 2586,
      "pected": 2587,
      "signs": 2588,
      "frey": 2589,
      "wooden": 2590,
      "drink": 2591,
      "ofessor": 2592,
      "Professor": 2593,
      "amazement": 2594,
      "Ge": 2595,
      "bber": 2596,
      "loud": 2597,
      "ertain": 2598,
      "alarm": 2599,
      "poison": 2600,
      "ilt": 2601,
      "caused": 2602,
      "ants": 2603,
      "proof": 2604,
      "proper": 2605,
      "posit": 2606,
      "thoughts": 2607,
      "matters": 2608,
      "bitter": 2609,
      "ﬁnished": 2610,
      "Pray": 2611,
      "symp": 2612,
      "circum": 2613,
      "Quite": 2614,
      "servants": 2615,
      "stretched": 2616,
      "necessary": 2617,
      "bottom": 2618,
      "Hopkins": 2619,
      "asleep": 2620,
      "17": 2621,
      "bra": 2622,
      "eat": 2623,
      "tled": 2624,
      "offe": 2625,
      "add": 2626,
      "acqu": 2627,
      "ters": 2628,
      "tie": 2629,
      "butler": 2630,
      "plans": 2631,
      "worse": 2632,
      "wore": 2633,
      "brows": 2634,
      "afternoon": 2635,
      "court": 2636,
      "instead": 2637,
      "stranger": 2638,
      "charge": 2639,
      "ﬁnite": 2640,
      "value": 2641,
      "observe": 2642,
      "Godfrey": 2643,
      "welve": 2644,
      "candle": 2645,
      "bridge": 2646,
      "Fran": 2647,
      "Lu": 2648,
      "Old": 2649,
      "Tur": 2650,
      "avi": 2651,
      "bag": 2652,
      "dull": 2653,
      "mal": 2654,
      "ral": 2655,
      "twice": 2656,
      "thed": 2657,
      "ased": 2658,
      "escape": 2659,
      "stro": 2660,
      "alth": 2661,
      "advert": 2662,
      "acy": 2663,
      "hotel": 2664,
      "devo": 2665,
      "develo": 2666,
      "prep": 2667,
      "Morstan": 2668,
      "admit": 2669,
      "smoke": 2670,
      "couple": 2671,
      "duty": 2672,
      "Har": 2673,
      "ging": 2674,
      "trem": 2675,
      "tail": 2676,
      "ences": 2677,
      "stared": 2678,
      "cott": 2679,
      "tice": 2680,
      "feared": 2681,
      "conversation": 2682,
      "brains": 2683,
      "angry": 2684,
      "hurry": 2685,
      "please": 2686,
      "elder": 2687,
      "honour": 2688,
      "claimed": 2689,
      "conﬁdence": 2690,
      "Barrymore": 2691,
      "future": 2692,
      "Again": 2693,
      "bran": 2694,
      "gar": 2695,
      "mi": 2696,
      "rate": 2697,
      "twelve": 2698,
      "wis": 2699,
      "inal": 2700,
      "andal": 2701,
      "blind": 2702,
      "telling": 2703,
      "chest": 2704,
      "watched": 2705,
      "conscious": 2706,
      "whispered": 2707,
      "narrow": 2708,
      "makes": 2709,
      "claim": 2710,
      "prisoner": 2711,
      "15": 2712,
      "19": 2713,
      "Certain": 2714,
      "Scar": 2715,
      "cred": 2716,
      "wand": 2717,
      "ﬁer": 2718,
      "ende": 2719,
      "ork": 2720,
      "staring": 2721,
      "river": 2722,
      "intro": 2723,
      "unders": 2724,
      "earnest": 2725,
      "thrown": 2726,
      "lightly": 2727,
      "putting": 2728,
      "desire": 2729,
      "instantly": 2730,
      "cigar": 2731,
      "attempt": 2732,
      "pounds": 2733,
      "appointment": 2734,
      "Lodge": 2735,
      "Certainly": 2736,
      "12": 2737,
      "Bes": 2738,
      "Bri": 2739,
      "Li": 2740,
      "Mer": 2741,
      "bic": 2742,
      "faces": 2743,
      "mouse": 2744,
      "ni": 2745,
      "pool": 2746,
      "spl": 2747,
      "ude": 2748,
      "intell": 2749,
      "ason": 2750,
      "gled": 2751,
      "cloud": 2752,
      "Study": 2753,
      "heads": 2754,
      "working": 2755,
      "dressing": 2756,
      "fairly": 2757,
      "fami": 2758,
      "energy": 2759,
      "missing": 2760,
      "swear": 2761,
      "extreme": 2762,
      "catch": 2763,
      "boots": 2764,
      "inquiry": 2765,
      "savage": 2766,
      "streng": 2767,
      "Nana": 2768,
      "Rob": 2769,
      "bow": 2770,
      "iam": 2771,
      "vague": 2772,
      "yards": 2773,
      "anim": 2774,
      "reput": 2775,
      "sole": 2776,
      "hole": 2777,
      "moon": 2778,
      "antly": 2779,
      "cles": 2780,
      "special": 2781,
      "justice": 2782,
      "courage": 2783,
      "chain": 2784,
      "example": 2785,
      "examination": 2786,
      "commun": 2787,
      "powers": 2788,
      "narrat": 2789,
      "suggested": 2790,
      "Brit": 2791,
      "practical": 2792,
      "respond": 2793,
      "memory": 2794,
      "Scarlet": 2795,
      "Or": 2796,
      "Two": 2797,
      "kes": 2798,
      "moun": 2799,
      "paid": 2800,
      "sal": 2801,
      "tro": 2802,
      "ﬁxed": 2803,
      "inno": 2804,
      "incl": 2805,
      "stances": 2806,
      "hic": 2807,
      "acc": 2808,
      "terror": 2809,
      "abl": 2810,
      "talking": 2811,
      "connection": 2812,
      "convinced": 2813,
      "square": 2814,
      "changed": 2815,
      "Hud": 2816,
      "Ne": 2817,
      "White": 2818,
      "bits": 2819,
      "bility": 2820,
      "ctive": 2821,
      "hit": 2822,
      "hood": 2823,
      "mus": 2824,
      "orge": 2825,
      "delic": 2826,
      "bye": 2827,
      "bott": 2828,
      "wicked": 2829,
      "stop": 2830,
      "super": 2831,
      "solution": 2832,
      "ﬁnally": 2833,
      "rising": 2834,
      "quickly": 2835,
      "burned": 2836,
      "sequence": 2837,
      "determined": 2838,
      "Scotland": 2839,
      "German": 2840,
      "length": 2841,
      "ﬁerce": 2842,
      "bicy": 2843,
      "13": 2844,
      "Dre": 2845,
      "Dear": 2846,
      "Had": 2847,
      "Sus": 2848,
      "bowed": 2849,
      "cra": 2850,
      "grey": 2851,
      "loose": 2852,
      "pho": 2853,
      "pill": 2854,
      "pisto": 2855,
      "tu": 2856,
      "heavi": 2857,
      "reed": 2858,
      "ense": 2859,
      "threat": 2860,
      "seat": 2861,
      "belong": 2862,
      "alter": 2863,
      "forget": 2864,
      "aby": 2865,
      "docu": 2866,
      "qual": 2867,
      "women": 2868,
      "posite": 2869,
      "reading": 2870,
      "cleared": 2871,
      "ventures": 2872,
      "chen": 2873,
      "curi": 2874,
      "Once": 2875,
      "horrible": 2876,
      "interrup": 2877,
      "valu": 2878,
      "mission": 2879,
      "admir": 2880,
      "glasses": 2881,
      "witness": 2882,
      "beginning": 2883,
      "Brother": 2884,
      "Me": 2885,
      "date": 2886,
      "grew": 2887,
      "lu": 2888,
      "ok": 2889,
      "rain": 2890,
      "zen": 2891,
      "inn": 2892,
      "oubted": 2893,
      "sear": 2894,
      "seized": 2895,
      "ric": 2896,
      "trap": 2897,
      "teen": 2898,
      "fold": 2899,
      "fail": 2900,
      "forever": 2901,
      "cler": 2902,
      "clay": 2903,
      "served": 2904,
      "smiling": 2905,
      "following": 2906,
      "latter": 2907,
      "keys": 2908,
      "stern": 2909,
      "excite": 2910,
      "excited": 2911,
      "Monday": 2912,
      "general": 2913,
      "advertise": 2914,
      "Emerald": 2915,
      "Finally": 2916,
      "None": 2917,
      "Sign": 2918,
      "avo": 2919,
      "mbered": 2920,
      "sme": 2921,
      "ﬁlled": 2922,
      "uttered": 2923,
      "ential": 2924,
      "former": 2925,
      "depart": 2926,
      "cks": 2927,
      "sul": 2928,
      "arty": 2929,
      "grow": 2930,
      "shape": 2931,
      "passion": 2932,
      "farther": 2933,
      "occup": 2934,
      "drawing": 2935,
      "pressed": 2936,
      "burgl": 2937,
      "played": 2938,
      "lane": 2939,
      "simply": 2940,
      "legs": 2941,
      "William": 2942,
      "building": 2943,
      "favour": 2944,
      "Hudson": 2945,
      "Cat": 2946,
      "Eu": 2947,
      "Would": 2948,
      "gown": 2949,
      "jump": 2950,
      "lor": 2951,
      "main": 2952,
      "phon": 2953,
      "task": 2954,
      "heaven": 2955,
      "oner": 2956,
      "ising": 2957,
      "ises": 2958,
      "associ": 2959,
      "attered": 2960,
      "below": 2961,
      "vere": 2962,
      "hig": 2963,
      "advant": 2964,
      "forced": 2965,
      "cop": 2966,
      "moving": 2967,
      "uni": 2968,
      "asking": 2969,
      "impat": 2970,
      "cheek": 2971,
      "shoes": 2972,
      "azing": 2973,
      "books": 2974,
      "Road": 2975,
      "practice": 2976,
      "castle": 2977,
      "Ferrier": 2978,
      "glimp": 2979,
      "noticed": 2980,
      "Drebber": 2981,
      "Jones": 2982,
      "Mary": 2983,
      "South": 2984,
      "bene": 2985,
      "dry": 2986,
      "emer": 2987,
      "job": 2988,
      "rust": 2989,
      "zed": 2990,
      "ism": 2991,
      "ington": 2992,
      "ative": 2993,
      "weight": 2994,
      "allow": 2995,
      "shri": 2996,
      "exp": 2997,
      "faith": 2998,
      "size": 2999,
      "opposite": 3000,
      "actually": 3001,
      "obli": 3002,
      "uded": 3003,
      "icked": 3004,
      "spoken": 3005,
      "hurt": 3006,
      "command": 3007,
      "famous": 3008,
      "warning": 3009,
      "quietly": 3010,
      "knees": 3011,
      "model": 3012,
      "methods": 3013,
      "Maj": 3014,
      "swiftly": 3015,
      "throat": 3016,
      "Turtle": 3017,
      "prepared": 3018,
      "introdu": 3019,
      "narrative": 3020,
      "oubtedly": 3021,
      "Mar": 3022,
      "dinner": 3023,
      "eed": 3024,
      "fu": 3025,
      "lines": 3026,
      "ras": 3027,
      "reve": 3028,
      "isn": 3029,
      "tograph": 3030,
      "escap": 3031,
      "stuff": 3032,
      "alive": 3033,
      "uncle": 3034,
      "unfortunate": 3035,
      "cking": 3036,
      "sume": 3037,
      "tea": 3038,
      "geant": 3039,
      "establ": 3040,
      "cially": 3041,
      "rum": 3042,
      "match": 3043,
      "remains": 3044,
      "chess": 3045,
      "lower": 3046,
      "busy": 3047,
      "interested": 3048,
      "condu": 3049,
      "regular": 3050,
      "interview": 3051,
      "holding": 3052,
      "deeply": 3053,
      "exceed": 3054,
      "kindly": 3055,
      "lantern": 3056,
      "slipped": 3057,
      "statement": 3058,
      "Hope": 3059,
      "America": 3060,
      "society": 3061,
      "eagerly": 3062,
      "results": 3063,
      "Count": 3064,
      "weapon": 3065,
      "circumstances": 3066,
      "strength": 3067,
      "Ch": 3068,
      "Far": 3069,
      "Great": 3070,
      "Sme": 3071,
      "ture": 3072,
      "aster": 3073,
      "although": 3074,
      "rig": 3075,
      "adventure": 3076,
      "som": 3077,
      "allowed": 3078,
      "acing": 3079,
      "agent": 3080,
      "agree": 3081,
      "rail": 3082,
      "proud": 3083,
      "discovered": 3084,
      "headed": 3085,
      "passing": 3086,
      "correspond": 3087,
      "giving": 3088,
      "remembered": 3089,
      "ease": 3090,
      "pleased": 3091,
      "conclusion": 3092,
      "pirates": 3093,
      "George": 3094,
      "endeav": 3095,
      "heavily": 3096,
      "Gry": 3097,
      "Hatter": 3098,
      "dust": 3099,
      "fle": 3100,
      "fal": 3101,
      "rage": 3102,
      "stud": 3103,
      "abbit": 3104,
      "tied": 3105,
      "traces": 3106,
      "loss": 3107,
      "local": 3108,
      "failed": 3109,
      "knowing": 3110,
      "nerves": 3111,
      "correct": 3112,
      "double": 3113,
      "watching": 3114,
      "party": 3115,
      "stepped": 3116,
      "umn": 3117,
      "silver": 3118,
      "meaning": 3119,
      "driven": 3120,
      "slee": 3121,
      "personal": 3122,
      "skin": 3123,
      "lawn": 3124,
      "succeed": 3125,
      "leaves": 3126,
      "Indeed": 3127,
      "conceal": 3128,
      "Mock": 3129,
      "eleven": 3130,
      "leaned": 3131,
      "concerned": 3132,
      "develop": 3133,
      "understood": 3134,
      "familiar": 3135,
      "innocent": 3136,
      "Smee": 3137,
      ".,": 3138,
      "New": 3139,
      "fl": 3140,
      "lined": 3141,
      "mach": 3142,
      "sank": 3143,
      "reli": 3144,
      "tobac": 3145,
      "envelo": 3146,
      "roy": 3147,
      "hoped": 3148,
      "usually": 3149,
      "illy": 3150,
      "sible": 3151,
      "handsome": 3152,
      "inking": 3153,
      "ansas": 3154,
      "disappeared": 3155,
      "discus": 3156,
      "thrust": 3157,
      "compl": 3158,
      "carpet": 3159,
      "?\"\"": 3160,
      "village": 3161,
      "drop": 3162,
      "arranged": 3163,
      "ﬁfty": 3164,
      "inquiries": 3165,
      "Robert": 3166,
      "bicycle": 3167,
      "EmeraldCity": 3168,
      "Europe": 3169,
      "glimpse": 3170,
      "Bald": 3171,
      "Con": 3172,
      "Kansas": 3173,
      "Slightly": 3174,
      "flo": 3175,
      "frank": 3176,
      "hut": 3177,
      "lest": 3178,
      "ratt": 3179,
      "scom": 3180,
      "heels": 3181,
      "thered": 3182,
      "thur": 3183,
      "meas": 3184,
      "seld": 3185,
      "wasn": 3186,
      "abs": 3187,
      "deed": 3188,
      "shining": 3189,
      "exact": 3190,
      "aken": 3191,
      "Stanger": 3192,
      "rench": 3193,
      "ﬁnding": 3194,
      "denly": 3195,
      "horses": 3196,
      "breast": 3197,
      "distur": 3198,
      "needed": 3199,
      "pleasure": 3200,
      "lovely": 3201,
      "Exce": 3202,
      "cigare": 3203,
      "gleam": 3204,
      "osity": 3205,
      "cottage": 3206,
      "Gryphon": 3207,
      "scombe": 3208,
      "seldom": 3209,
      "CE": 3210,
      "French": 3211,
      "Gold": 3212,
      "Po": 3213,
      "bs": 3214,
      "bbed": 3215,
      "cunning": 3216,
      "due": 3217,
      "kit": 3218,
      "ma": 3219,
      "nice": 3220,
      "named": 3221,
      "ride": 3222,
      "warm": 3223,
      "ature": 3224,
      "arse": 3225,
      "armed": 3226,
      "thus": 3227,
      "stream": 3228,
      "separ": 3229,
      "hiding": 3230,
      "weary": 3231,
      "noble": 3232,
      "enter": 3233,
      "adventures": 3234,
      "cost": 3235,
      "using": 3236,
      "dem": 3237,
      "pole": 3238,
      "peace": 3239,
      "gover": 3240,
      "share": 3241,
      "medical": 3242,
      "cience": 3243,
      "clever": 3244,
      "scent": 3245,
      "Mycroft": 3246,
      "sinister": 3247,
      "reply": 3248,
      "baronet": 3249,
      "sky": 3250,
      "excuse": 3251,
      "ridge": 3252,
      "naturally": 3253,
      "violence": 3254,
      "rapidly": 3255,
      "laughing": 3256,
      "wedding": 3257,
      "professional": 3258,
      "mentioned": 3259,
      "bottle": 3260,
      "valuable": 3261,
      "25": 3262,
      "Mason": 3263,
      "Pri": 3264,
      "Tell": 3265,
      "loo": 3266,
      "mile": 3267,
      "names": 3268,
      "page": 3269,
      "ﬂy": 3270,
      "itation": 3271,
      "arti": 3272,
      "coder": 3273,
      "nel": 3274,
      "peep": 3275,
      "places": 3276,
      "pers": 3277,
      "forehead": 3278,
      "household": 3279,
      "wire": 3280,
      "desc": 3281,
      "odd": 3282,
      "wants": 3283,
      "shire": 3284,
      "mistake": 3285,
      "connected": 3286,
      "judge": 3287,
      "assured": 3288,
      "photograph": 3289,
      "Ben": 3290,
      "March": 3291,
      "Wil": 3292,
      "food": 3293,
      "gus": 3294,
      "jury": 3295,
      "scri": 3296,
      "haven": 3297,
      "toss": 3298,
      "lle": 3299,
      "oward": 3300,
      "active": 3301,
      "myster": 3302,
      "notes": 3303,
      "dozen": 3304,
      "owner": 3305,
      "exclaimed": 3306,
      "ender": 3307,
      "couldn": 3308,
      "gloom": 3309,
      "spite": 3310,
      "mbers": 3311,
      "fted": 3312,
      "die": 3313,
      "surd": 3314,
      "stead": 3315,
      "author": 3316,
      "pursu": 3317,
      "quarters": 3318,
      "ﬁngers": 3319,
      "victim": 3320,
      "respon": 3321,
      "possession": 3322,
      "Duchess": 3323,
      "immediately": 3324,
      "inﬂu": 3325,
      "credit": 3326,
      "tobacco": 3327,
      "kitchen": 3328,
      "Milver": 3329,
      "Pre": 3330,
      "dart": 3331,
      "fain": 3332,
      "mill": 3333,
      "tes": 3334,
      "ume": 3335,
      "unex": 3336,
      "ﬁgu": 3337,
      "inv": 3338,
      "intim": 3339,
      "habits": 3340,
      "terri": 3341,
      "tives": 3342,
      "decl": 3343,
      "deﬁnite": 3344,
      "geon": 3345,
      "fog": 3346,
      "ational": 3347,
      "aked": 3348,
      "looks": 3349,
      "grown": 3350,
      "doors": 3351,
      "angu": 3352,
      "scandal": 3353,
      "opening": 3354,
      "visible": 3355,
      "solved": 3356,
      "slept": 3357,
      "observ": 3358,
      "climb": 3359,
      "coloured": 3360,
      "wonderful": 3361,
      "sunk": 3362,
      "sweet": 3363,
      "approached": 3364,
      "knocked": 3365,
      "Black": 3366,
      "convict": 3367,
      "acquaint": 3368,
      "British": 3369,
      "excitement": 3370,
      "false": 3371,
      "Milverton": 3372,
      "Chic": 3373,
      "De": 3374,
      "Hu": 3375,
      "Pres": 3376,
      "Sud": 3377,
      "cil": 3378,
      "ives": 3379,
      "pin": 3380,
      "tions": 3381,
      "itude": 3382,
      "lli": 3383,
      "argu": 3384,
      "hide": 3385,
      "ceased": 3386,
      "ager": 3387,
      "exist": 3388,
      "forest": 3389,
      "class": 3390,
      "type": 3391,
      "rounded": 3392,
      "career": 3393,
      "murdered": 3394,
      "Mori": 3395,
      "villain": 3396,
      "examine": 3397,
      "regard": 3398,
      "grounds": 3399,
      "secretary": 3400,
      "listen": 3401,
      "walls": 3402,
      "affairs": 3403,
      "experi": 3404,
      "Captain": 3405,
      "forgotten": 3406,
      "reputation": 3407,
      "communic": 3408,
      "pistol": 3409,
      "advantage": 3410,
      "envelope": 3411,
      "Chicago": 3412,
      "Could": 3413,
      "Ru": 3414,
      "bill": 3415,
      "drun": 3416,
      "em": 3417,
      "mn": 3418,
      "phy": 3419,
      "vain": 3420,
      "reck": 3421,
      "atic": 3422,
      "stag": 3423,
      "sex": 3424,
      "youth": 3425,
      "chuck": 3426,
      "history": 3427,
      "saved": 3428,
      "acce": 3429,
      "agreat": 3430,
      "unity": 3431,
      "unknown": 3432,
      "unusual": 3433,
      "gras": 3434,
      "grat": 3435,
      "undoubtedly": 3436,
      "cheer": 3437,
      "worked": 3438,
      "deser": 3439,
      "helped": 3440,
      "settled": 3441,
      "happen": 3442,
      "presented": 3443,
      "sooner": 3444,
      "bury": 3445,
      "merely": 3446,
      "suspicion": 3447,
      "suspicions": 3448,
      "arrested": 3449,
      "contrary": 3450,
      "repeated": 3451,
      "puzzled": 3452,
      "shrugged": 3453,
      "Besides": 3454,
      "curiosity": 3455,
      "Moriarty": 3456,
      "Ed": 3457,
      "Red": 3458,
      "Still": 3459,
      "bask": 3460,
      "bund": 3461,
      "cards": 3462,
      "fan": 3463,
      "find": 3464,
      "gather": 3465,
      "han": 3466,
      "rant": 3467,
      "rise": 3468,
      "tal": 3469,
      "ﬁsh": 3470,
      "theTinWoodman": 3471,
      "island": 3472,
      "member": 3473,
      "bearing": 3474,
      "vering": 3475,
      "lim": 3476,
      "absurd": 3477,
      "trail": 3478,
      "apart": 3479,
      "wouldn": 3480,
      "raise": 3481,
      "ices": 3482,
      "glancing": 3483,
      "opport": 3484,
      "intention": 3485,
      "comr": 3486,
      "cip": 3487,
      "presume": 3488,
      "corrid": 3489,
      "shock": 3490,
      "Morris": 3491,
      "keeping": 3492,
      "cabin": 3493,
      "fastened": 3494,
      "imagined": 3495,
      "grim": 3496,
      "powerful": 3497,
      "custo": 3498,
      "Norwood": 3499,
      "touched": 3500,
      "smoking": 3501,
      "golden": 3502,
      "satisﬁed": 3503,
      "polit": 3504,
      "assistance": 3505,
      "astonishment": 3506,
      "teeth": 3507,
      "shouted": 3508,
      "original": 3509,
      "elderly": 3510,
      "document": 3511,
      "beneath": 3512,
      "Baldwin": 3513,
      "Stangerson": 3514,
      "Ste": 3515,
      "Take": 3516,
      "Toot": 3517,
      "bal": 3518,
      "emb": 3519,
      "gers": 3520,
      "hook": 3521,
      "nis": 3522,
      "pter": 3523,
      "ron": 3524,
      "yard": 3525,
      "height": 3526,
      "recent": 3527,
      "oup": 3528,
      "inged": 3529,
      "straw": 3530,
      "ower": 3531,
      "idable": 3532,
      "cell": 3533,
      "weather": 3534,
      "sail": 3535,
      "forty": 3536,
      "nearer": 3537,
      "tire": 3538,
      "def": 3539,
      "unhappy": 3540,
      "shone": 3541,
      "ilty": 3542,
      "oused": 3543,
      "intothe": 3544,
      "range": 3545,
      "brow": 3546,
      "disc": 3547,
      "angle": 3548,
      "greatest": 3549,
      "rent": 3550,
      "guilty": 3551,
      "piec": 3552,
      "hurst": 3553,
      "enemy": 3554,
      "missed": 3555,
      "temper": 3556,
      "recovered": 3557,
      "promised": 3558,
      "complex": 3559,
      "eague": 3560,
      "North": 3561,
      "welcome": 3562,
      "Small": 3563,
      "approach": 3564,
      "solemn": 3565,
      "delicate": 3566,
      "advertisement": 3567,
      "escaped": 3568,
      "exceedingly": 3569,
      "flew": 3570,
      "Excellent": 3571,
      "Tootles": 3572,
      "--": 3573,
      "24": 3574,
      "30": 3575,
      "Doc": 3576,
      "EN": 3577,
      "Ishall": 3578,
      "Ly": 3579,
      "RO": 3580,
      "city": 3581,
      "equ": 3582,
      "gazed": 3583,
      "lam": 3584,
      "pun": 3585,
      "ordered": 3586,
      "forthe": 3587,
      "liked": 3588,
      "hopes": 3589,
      "ours": 3590,
      "apolo": 3591,
      "gling": 3592,
      "club": 3593,
      "shaken": 3594,
      "comfor": 3595,
      "preci": 3596,
      "chamber": 3597,
      "despair": 3598,
      "helps": 3599,
      "takes": 3600,
      "native": 3601,
      "formidable": 3602,
      "join": 3603,
      "committed": 3604,
      "apping": 3605,
      "brick": 3606,
      "nurser": 3607,
      "produced": 3608,
      "hanging": 3609,
      "devoted": 3610,
      "conduct": 3611,
      "guson": 3612,
      "basket": 3613,
      "pieces": 3614,
      "Doctor": 3615,
      "''": 3616,
      ":—": 3617,
      "Iwill": 3618,
      "Jon": 3619,
      "Sh": 3620,
      "Si": 3621,
      "Sim": 3622,
      "Von": 3623,
      "chim": 3624,
      "gang": 3625,
      "ials": 3626,
      "kiss": 3627,
      "pure": 3628,
      "zy": 3629,
      "hem": 3630,
      "ofﬁc": 3631,
      "lly": 3632,
      "melan": 3633,
      "ented": 3634,
      "ades": 3635,
      "amid": 3636,
      "pear": 3637,
      "log": 3638,
      "theywere": 3639,
      "venge": 3640,
      "shaking": 3641,
      "serve": 3642,
      "sergeant": 3643,
      "speed": 3644,
      "scar": 3645,
      "guide": 3646,
      "begun": 3647,
      "parts": 3648,
      "faction": 3649,
      "izard": 3650,
      "joined": 3651,
      "speaking": 3652,
      "streets": 3653,
      "probable": 3654,
      "strike": 3655,
      "professor": 3656,
      "choly": 3657,
      "Scott": 3658,
      "Arthur": 3659,
      "nurse": 3660,
      "cruel": 3661,
      "Duke": 3662,
      "arrange": 3663,
      "Such": 3664,
      "machine": 3665,
      "acquaintance": 3666,
      "Suddenly": 3667,
      "nursery": 3668,
      "34": 3669,
      "Bay": 3670,
      "Frank": 3671,
      "RA": 3672,
      "Rabbit": 3673,
      "War": 3674,
      "bent": 3675,
      "gall": 3676,
      "ield": 3677,
      "kers": 3678,
      "lid": 3679,
      "mate": 3680,
      "nal": 3681,
      "phe": 3682,
      "stoo": 3683,
      "hesit": 3684,
      "init": 3685,
      "recon": 3686,
      "erial": 3687,
      "itary": 3688,
      "tore": 3689,
      "ories": 3690,
      "espe": 3691,
      "atthe": 3692,
      "upstairs": 3693,
      "sufﬁ": 3694,
      "pless": 3695,
      "worst": 3696,
      "perceive": 3697,
      "clam": 3698,
      "didnot": 3699,
      "rug": 3700,
      "housekeeper": 3701,
      "desper": 3702,
      "calling": 3703,
      "showing": 3704,
      "built": 3705,
      "captain": 3706,
      "price": 3707,
      "grace": 3708,
      "suspect": 3709,
      "honest": 3710,
      "beauty": 3711,
      "apparen": 3712,
      "circle": 3713,
      "Indian": 3714,
      "concealed": 3715,
      "satisfaction": 3716,
      "leaning": 3717,
      "spirit": 3718,
      "bbing": 3719,
      "Having": 3720,
      "vanished": 3721,
      "accident": 3722,
      "ﬁgures": 3723,
      "especially": 3724,
      "AD": 3725,
      "Jef": 3726,
      "Up": 3727,
      "aun": 3728,
      "ball": 3729,
      "emotion": 3730,
      "iﬁc": 3731,
      "len": 3732,
      "ners": 3733,
      "oon": 3734,
      "slo": 3735,
      "sides": 3736,
      "intr": 3737,
      "thumb": 3738,
      "stable": 3739,
      "wear": 3740,
      "nod": 3741,
      "saf": 3742,
      "lip": 3743,
      "managed": 3744,
      "thers": 3745,
      "conve": 3746,
      "contained": 3747,
      "aking": 3748,
      "bore": 3749,
      "handle": 3750,
      "backto": 3751,
      "reek": 3752,
      "useful": 3753,
      "lace": 3754,
      "orders": 3755,
      "throughthe": 3756,
      "careful": 3757,
      "curtain": 3758,
      "reasoning": 3759,
      "distri": 3760,
      "triump": 3761,
      "column": 3762,
      "playing": 3763,
      "dragged": 3764,
      "knee": 3765,
      "described": 3766,
      "description": 3767,
      "printed": 3768,
      "sofa": 3769,
      "smell": 3770,
      "Wilson": 3771,
      "melancholy": 3772,
      "triumph": 3773,
      "27": 3774,
      "Hor": 3775,
      "LI": 3776,
      "Mus": 3777,
      "Phelps": 3778,
      "Sto": 3779,
      "ator": 3780,
      "baby": 3781,
      "chat": 3782,
      "fly": 3783,
      "fet": 3784,
      "link": 3785,
      "langu": 3786,
      "tur": 3787,
      "tte": 3788,
      "tong": 3789,
      "valley": 3790,
      "west": 3791,
      "wide": 3792,
      "ﬂushed": 3793,
      "orn": 3794,
      "stained": 3795,
      "rolled": 3796,
      "ali": 3797,
      "limb": 3798,
      "terms": 3799,
      "absor": 3800,
      "ability": 3801,
      "arest": 3802,
      "worthy": 3803,
      "Therefore": 3804,
      "brand": 3805,
      "grin": 3806,
      "Star": 3807,
      "lights": 3808,
      "torn": 3809,
      "precious": 3810,
      "horri": 3811,
      "crowd": 3812,
      "contents": 3813,
      "deadly": 3814,
      "distant": 3815,
      "mistress": 3816,
      "Carthy": 3817,
      "conclus": 3818,
      "Ferguson": 3819,
      "About": 3820,
      "Garride": 3821,
      "sympat": 3822,
      "intellig": 3823,
      "furious": 3824,
      "inﬂuence": 3825,
      "opportunity": 3826,
      "Cec": 3827,
      "Dun": 3828,
      "Gri": 3829,
      "Jose": 3830,
      "aver": 3831,
      "bul": 3832,
      "fond": 3833,
      "io": 3834,
      "iety": 3835,
      "rated": 3836,
      "uc": 3837,
      "health": 3838,
      "anno": 3839,
      "refer": 3840,
      "removed": 3841,
      "retired": 3842,
      "attr": 3843,
      "forth": 3844,
      "nder": 3845,
      "ural": 3846,
      "loves": 3847,
      "essential": 3848,
      "somewhere": 3849,
      "bles": 3850,
      "ists": 3851,
      "intense": 3852,
      "discover": 3853,
      "impro": 3854,
      "mense": 3855,
      "prefer": 3856,
      "works": 3857,
      "ody": 3858,
      "shows": 3859,
      "larger": 3860,
      "reasons": 3861,
      "presently": 3862,
      "commiss": 3863,
      "Does": 3864,
      "capable": 3865,
      "nett": 3866,
      "ferson": 3867,
      "sugges": 3868,
      "madam": 3869,
      "completely": 3870,
      "birds": 3871,
      "groan": 3872,
      "gathered": 3873,
      "furnished": 3874,
      "picture": 3875,
      "Mean": 3876,
      "succeeded": 3877,
      "cigarette": 3878,
      "existence": 3879,
      "corridor": 3880,
      "comfortable": 3881,
      "Body": 3882,
      "Five": 3883,
      "Go": 3884,
      "Nib": 3885,
      "Par": 3886,
      "Tho": 3887,
      "VI": 3888,
      "bid": 3889,
      "bark": 3890,
      "craw": 3891,
      "gained": 3892,
      "iﬁed": 3893,
      "mou": 3894,
      "mous": 3895,
      "vor": 3896,
      "heap": 3897,
      "oned": 3898,
      "astic": 3899,
      "wet": 3900,
      "utmost": 3901,
      "upper": 3902,
      "mantel": 3903,
      "motive": 3904,
      "pot": 3905,
      "pelled": 3906,
      "consult": 3907,
      "estate": 3908,
      "hedge": 3909,
      "disco": 3910,
      "ount": 3911,
      "throwing": 3912,
      "Station": 3913,
      "mud": 3914,
      "scattered": 3915,
      "check": 3916,
      "pointing": 3917,
      "county": 3918,
      "gives": 3919,
      "Dormouse": 3920,
      "increas": 3921,
      "crack": 3922,
      "marry": 3923,
      "distinct": 3924,
      "Bell": 3925,
      "believed": 3926,
      "^^^": 3927,
      "grip": 3928,
      "realize": 3929,
      "leading": 3930,
      "syste": 3931,
      "mistaken": 3932,
      "Donald": 3933,
      "brilli": 3934,
      "refused": 3935,
      "advance": 3936,
      "Straker": 3937,
      "bullet": 3938,
      "clerk": 3939,
      "cheeks": 3940,
      "emerged": 3941,
      "obliged": 3942,
      "absence": 3943,
      "Golden": 3944,
      "mysterious": 3945,
      "Simon": 3946,
      "Jefferson": 3947,
      "Nibs": 3948,
      "Afri": 3949,
      "East": 3950,
      "Holder": 3951,
      "IL": 3952,
      "Ver": 3953,
      "apole": 3954,
      "dining": 3955,
      "ech": 3956,
      "ior": 3957,
      "iently": 3958,
      "oper": 3959,
      "tap": 3960,
      "uous": 3961,
      "vac": 3962,
      "ﬂat": 3963,
      "hewas": 3964,
      "aside": 3965,
      "tori": 3966,
      "tosee": 3967,
      "ennis": 3968,
      "ese": 3969,
      "llers": 3970,
      "sem": 3971,
      "severe": 3972,
      "hidden": 3973,
      "idual": 3974,
      "althy": 3975,
      "alert": 3976,
      "deﬁ": 3977,
      "hers": 3978,
      "sumed": 3979,
      "suff": 3980,
      "trous": 3981,
      "pled": 3982,
      "prote": 3983,
      "cies": 3984,
      "vial": 3985,
      "material": 3986,
      "smart": 3987,
      "hypo": 3988,
      "spare": 3989,
      "stands": 3990,
      "desk": 3991,
      "dying": 3992,
      "solid": 3993,
      "gently": 3994,
      "crou": 3995,
      "armchair": 3996,
      "ﬁnal": 3997,
      "shortly": 3998,
      "direct": 3999,
      "dram": 4000,
      "ceiv": 4001,
      "Roy": 4002,
      "carrying": 4003,
      "painful": 4004,
      "violent": 4005,
      "knock": 4006,
      "thorough": 4007,
      "treated": 4008,
      "constable": 4009,
      "decided": 4010,
      "property": 4011,
      "Frances": 4012,
      "earnestly": 4013,
      "animal": 4014,
      "folded": 4015,
      "Bennett": 4016,
      "Rucastle": 4017,
      "equally": 4018,
      "district": 4019,
      "Joseph": 4020,
      "22": 4021,
      "Ale": 4022,
      "Bridge": 4023,
      "Cam": 4024,
      "Ev": 4025,
      "Squ": 4026,
      "Tre": 4027,
      "Thad": 4028,
      "Treg": 4029,
      "egg": 4030,
      "greet": 4031,
      "lur": 4032,
      "pity": 4033,
      "ﬁght": 4034,
      "hesaid": 4035,
      "onthe": 4036,
      "asc": 4037,
      "itated": 4038,
      "organ": 4039,
      "nois": 4040,
      "ado": 4041,
      "forms": 4042,
      "liber": 4043,
      "acles": 4044,
      "hollow": 4045,
      "manager": 4046,
      "neat": 4047,
      "deus": 4048,
      "unable": 4049,
      "lored": 4050,
      "consul": 4051,
      "tears": 4052,
      "ify": 4053,
      "sical": 4054,
      "bold": 4055,
      "rance": 4056,
      "claw": 4057,
      "comb": 4058,
      "rule": 4059,
      "offer": 4060,
      "preca": 4061,
      "mono": 4062,
      "settle": 4063,
      "supp": 4064,
      "central": 4065,
      "frequ": 4066,
      "companions": 4067,
      "swim": 4068,
      "breaking": 4069,
      "closely": 4070,
      "patient": 4071,
      "difﬁculties": 4072,
      "Bohem": 4073,
      "badly": 4074,
      "crossed": 4075,
      "twisted": 4076,
      "advanced": 4077,
      "Maybe": 4078,
      "MacDonald": 4079,
      "soldier": 4080,
      "Which": 4081,
      "offered": 4082,
      "avoid": 4083,
      "ickedWitch": 4084,
      "floor": 4085,
      "safety": 4086,
      "Musgrave": 4087,
      "commission": 4088,
      "suggestive": 4089,
      "Those": 4090,
      "Bork": 4091,
      "Give": 4092,
      "Grace": 4093,
      "La": 4094,
      "Pi": 4095,
      "Silver": 4096,
      "cart": 4097,
      "dam": 4098,
      "dashed": 4099,
      "ee": 4100,
      "gap": 4101,
      "iﬁ": 4102,
      "iable": 4103,
      "lin": 4104,
      "mood": 4105,
      "ram": 4106,
      "sco": 4107,
      "wing": 4108,
      "inci": 4109,
      "invol": 4110,
      "tobe": 4111,
      "ora": 4112,
      "atur": 4113,
      "llen": 4114,
      "stout": 4115,
      "leather": 4116,
      "owe": 4117,
      "ache": 4118,
      "tering": 4119,
      "coach": 4120,
      "uses": 4121,
      "agic": 4122,
      "saidDorothy": 4123,
      "fee": 4124,
      "ouring": 4125,
      "exer": 4126,
      "esty": 4127,
      "otherwise": 4128,
      "prov": 4129,
      "intended": 4130,
      "pray": 4131,
      "comfort": 4132,
      "cia": 4133,
      "ullo": 4134,
      "gets": 4135,
      "athan": 4136,
      "farm": 4137,
      "voices": 4138,
      "ggle": 4139,
      "possibility": 4140,
      "McCarthy": 4141,
      "pressing": 4142,
      "starting": 4143,
      "Before": 4144,
      "risk": 4145,
      "agoon": 4146,
      "training": 4147,
      "wondering": 4148,
      "uneas": 4149,
      "tracks": 4150,
      "occasionally": 4151,
      "screamed": 4152,
      "gasped": 4153,
      "collection": 4154,
      "Brix": 4155,
      "heavens": 4156,
      "Majesty": 4157,
      "sleeve": 4158,
      "bundle": 4159,
      "Baynes": 4160,
      "apparently": 4161,
      "Bodymaster": 4162,
      "Ay": 4163,
      "Ames": 4164,
      "Et": 4165,
      "Py": 4166,
      "Vic": 4167,
      "].": 4168,
      "bath": 4169,
      "cam": 4170,
      "lens": 4171,
      "rand": 4172,
      "tale": 4173,
      "thelittle": 4174,
      "represent": 4175,
      "hal": 4176,
      "istic": 4177,
      "enor": 4178,
      "host": 4179,
      "tip": 4180,
      "agger": 4181,
      "agreed": 4182,
      "saidtheScarecrow": 4183,
      "pop": 4184,
      "fromthe": 4185,
      "expen": 4186,
      "ulate": 4187,
      "sick": 4188,
      "anyhow": 4189,
      "aff": 4190,
      "clut": 4191,
      "shaw": 4192,
      "immense": 4193,
      "thoughtfully": 4194,
      "sport": 4195,
      "mercy": 4196,
      "greater": 4197,
      "stock": 4198,
      "helpless": 4199,
      "younger": 4200,
      "regret": 4201,
      "needs": 4202,
      "feelings": 4203,
      "talked": 4204,
      "Barclay": 4205,
      "relations": 4206,
      "vicar": 4207,
      "stayed": 4208,
      "twink": 4209,
      "convul": 4210,
      "models": 4211,
      "various": 4212,
      "utterly": 4213,
      "fatal": 4214,
      "While": 4215,
      "positive": 4216,
      "branches": 4217,
      "shriek": 4218,
      "observation": 4219,
      "desperate": 4220,
      "Square": 4221,
      "Thaddeus": 4222,
      "Tregennis": 4223,
      "11": 4224,
      "Cunning": 4225,
      "Greek": 4226,
      "Hullo": 4227,
      "Part": 4228,
      "TE": 4229,
      "bread": 4230,
      "base": 4231,
      "coffe": 4232,
      "dow": 4233,
      "fra": 4234,
      "faint": 4235,
      "gress": 4236,
      "lagoon": 4237,
      "mir": 4238,
      "ns": 4239,
      "oa": 4240,
      "ome": 4241,
      "wol": 4242,
      "yer": 4243,
      "ﬁx": 4244,
      "ﬂight": 4245,
      "ancient": 4246,
      "reward": 4247,
      "outof": 4248,
      "haust": 4249,
      "asha": 4250,
      "itwas": 4251,
      "itions": 4252,
      "andthen": 4253,
      "stables": 4254,
      "ceiling": 4255,
      "noise": 4256,
      "manage": 4257,
      "fever": 4258,
      "suf": 4259,
      "conven": 4260,
      "Heaven": 4261,
      "shewas": 4262,
      "wheel": 4263,
      "plaster": 4264,
      "sigh": 4265,
      "woke": 4266,
      "mental": 4267,
      "blame": 4268,
      "bris": 4269,
      "clad": 4270,
      "ishing": 4271,
      "scrat": 4272,
      "lair": 4273,
      "launch": 4274,
      "udge": 4275,
      "friendly": 4276,
      "stories": 4277,
      "instinct": 4278,
      "awful": 4279,
      "Moran": 4280,
      "cris": 4281,
      "Thus": 4282,
      "driving": 4283,
      "buried": 4284,
      "pencil": 4285,
      "sounds": 4286,
      "ART": 4287,
      "quarrel": 4288,
      "calm": 4289,
      "recolle": 4290,
      "bringing": 4291,
      "continue": 4292,
      "summon": 4293,
      "Hotel": 4294,
      "vices": 4295,
      "refuse": 4296,
      "bbery": 4297,
      "pirate": 4298,
      "employer": 4299,
      "depend": 4300,
      "cisely": 4301,
      "brave": 4302,
      "Lucy": 4303,
      "stuffed": 4304,
      "discuss": 4305,
      "unexpected": 4306,
      "mantelpiece": 4307,
      "Ettie": 4308,
      "coffee": 4309,
      "26": 4310,
      "Am": 4311,
      "AND": 4312,
      "Bir": 4313,
      "Bless": 4314,
      "Birl": 4315,
      "First": 4316,
      "Hare": 4317,
      "Ishould": 4318,
      "Ke": 4319,
      "Out": 4320,
      "Place": 4321,
      "QU": 4322,
      "Turn": 4323,
      "bought": 4324,
      "dra": 4325,
      "ius": 4326,
      "jaw": 4327,
      "lunch": 4328,
      "nment": 4329,
      "paw": 4330,
      "rul": 4331,
      "uries": 4332,
      "whow": 4333,
      "yonder": 4334,
      "ﬁll": 4335,
      "theWoodman": 4336,
      "theories": 4337,
      "inher": 4338,
      "request": 4339,
      "ashes": 4340,
      "thri": 4341,
      "thim": 4342,
      "star": 4343,
      "lease": 4344,
      "secur": 4345,
      "iding": 4346,
      "chan": 4347,
      "choose": 4348,
      "altogether": 4349,
      "soo": 4350,
      "acity": 4351,
      "accord": 4352,
      "cool": 4353,
      "aband": 4354,
      "agony": 4355,
      "moder": 4356,
      "trained": 4357,
      "conceiv": 4358,
      "iff": 4359,
      "indiv": 4360,
      "anted": 4361,
      "plent": 4362,
      "sibly": 4363,
      "blank": 4364,
      "blew": 4365,
      "clas": 4366,
      "grand": 4367,
      "grate": 4368,
      "compelled": 4369,
      "ruin": 4370,
      "ruthers": 4371,
      "ully": 4372,
      "disappearance": 4373,
      "obsc": 4374,
      "series": 4375,
      "matic": 4376,
      "space": 4377,
      "speech": 4378,
      "nerve": 4379,
      "dile": 4380,
      "waist": 4381,
      "layer": 4382,
      "landlady": 4383,
      "quired": 4384,
      "incred": 4385,
      "examining": 4386,
      "struggle": 4387,
      "trick": 4388,
      "doesn": 4389,
      "questioning": 4390,
      "skins": 4391,
      "whisper": 4392,
      "Baron": 4393,
      "missa": 4394,
      "lodger": 4395,
      "Both": 4396,
      "eyebrows": 4397,
      "impressed": 4398,
      "ilder": 4399,
      "rers": 4400,
      "Monkeys": 4401,
      "burning": 4402,
      "analy": 4403,
      "bearded": 4404,
      "glim": 4405,
      "Manor": 4406,
      "anxiously": 4407,
      "trembling": 4408,
      "Sussex": 4409,
      "relief": 4410,
      "tossed": 4411,
      "fainted": 4412,
      "accept": 4413,
      "chimney": 4414,
      "nodded": 4415,
      "Brixton": 4416,
      ",'": 4417,
      "Cross": 4418,
      "Jane": 4419,
      "Mouse": 4420,
      "Munch": 4421,
      "Napole": 4422,
      "Pan": 4423,
      "Poor": 4424,
      "Simp": 4425,
      "Shall": 4426,
      "Tues": 4427,
      "athe": 4428,
      "ait": 4429,
      "bones": 4430,
      "cing": 4431,
      "dig": 4432,
      "fro": 4433,
      "fru": 4434,
      "foul": 4435,
      "goose": 4436,
      "lion": 4437,
      "lation": 4438,
      "nut": 4439,
      "oak": 4440,
      "pent": 4441,
      "rare": 4442,
      "snat": 4443,
      "sque": 4444,
      "hest": 4445,
      "hered": 4446,
      "iny": 4447,
      "informed": 4448,
      "recomm": 4449,
      "oug": 4450,
      "erve": 4451,
      "iture": 4452,
      "itable": 4453,
      "andthey": 4454,
      "ata": 4455,
      "arX": 4456,
      "lect": 4457,
      "becomes": 4458,
      "youwill": 4459,
      "alo": 4460,
      "aloud": 4461,
      "utions": 4462,
      "acle": 4463,
      "output": 4464,
      "tily": 4465,
      "aging": 4466,
      "amuse": 4467,
      "tray": 4468,
      "wheels": 4469,
      "bythe": 4470,
      "ulated": 4471,
      "affect": 4472,
      "overcoat": 4473,
      "pride": 4474,
      "growing": 4475,
      "posing": 4476,
      "eyed": 4477,
      "rubbed": 4478,
      "Staun": 4479,
      "chap": 4480,
      "careless": 4481,
      "helor": 4482,
      "monstr": 4483,
      "laying": 4484,
      "supper": 4485,
      "drawer": 4486,
      "policeman": 4487,
      "joke": 4488,
      "trial": 4489,
      "swung": 4490,
      "dogs": 4491,
      "warn": 4492,
      "trait": 4493,
      "Ross": 4494,
      "ashing": 4495,
      "collar": 4496,
      "Carruthers": 4497,
      "thesis": 4498,
      "extremely": 4499,
      "disturbed": 4500,
      "demand": 4501,
      "hansom": 4502,
      "tongue": 4503,
      "ashamed": 4504,
      "Birlstone": 4505,
      "Staunton": 4506,
      ".—": 4507,
      "Billy": 4508,
      "Cl": 4509,
      "Cy": 4510,
      "Che": 4511,
      "Cur": 4512,
      "Fo": 4513,
      "Foot": 4514,
      "Hal": 4515,
      "Hard": 4516,
      "Ken": 4517,
      "ST": 4518,
      "Sy": 4519,
      "Thor": 4520,
      "aud": 4521,
      "aire": 4522,
      "chas": 4523,
      "ere": 4524,
      "gment": 4525,
      "imes": 4526,
      "ium": 4527,
      "lab": 4528,
      "mut": 4529,
      "map": 4530,
      "non": 4531,
      "snow": 4532,
      "ssi": 4533,
      "uf": 4534,
      "umber": 4535,
      "va": 4536,
      "vig": 4537,
      "wret": 4538,
      "infer": 4539,
      "eder": 4540,
      "ingu": 4541,
      "hatred": 4542,
      "thi": 4543,
      "sell": 4544,
      "waste": 4545,
      "alous": 4546,
      "alian": 4547,
      "ading": 4548,
      "allthe": 4549,
      "coal": 4550,
      "tight": 4551,
      "ille": 4552,
      "unter": 4553,
      "subt": 4554,
      "tragic": 4555,
      "congrat": 4556,
      "ardon": 4557,
      "fault": 4558,
      "eping": 4559,
      "cries": 4560,
      "inted": 4561,
      "clapped": 4562,
      "maybe": 4563,
      "obje": 4564,
      "div": 4565,
      "Soames": 4566,
      "cured": 4567,
      "ladies": 4568,
      "minds": 4569,
      "lands": 4570,
      "vision": 4571,
      "strangers": 4572,
      "silk": 4573,
      "fairy": 4574,
      "signal": 4575,
      "driver": 4576,
      "steam": 4577,
      "isteria": 4578,
      "exception": 4579,
      "laughter": 4580,
      "whiskers": 4581,
      "patience": 4582,
      "listening": 4583,
      "sorrow": 4584,
      "custom": 4585,
      "witha": 4586,
      "Sometimes": 4587,
      "expert": 4588,
      "safely": 4589,
      "sharply": 4590,
      "addressed": 4591,
      "axe": 4592,
      "croco": 4593,
      "Garcia": 4594,
      "pictures": 4595,
      "funny": 4596,
      "delighted": 4597,
      "pillar": 4598,
      "interrupted": 4599,
      "highest": 4600,
      "copy": 4601,
      "deserted": 4602,
      "customed": 4603,
      "absorbed": 4604,
      "sympathy": 4605,
      "moust": 4606,
      "Vermissa": 4607,
      "individual": 4608,
      "plenty": 4609,
      "Tuesday": 4610,
      "arXiv": 4611,
      "23": 4612,
      "29": 4613,
      "67": 4614,
      "Cha": 4615,
      "Gib": 4616,
      "Has": 4617,
      "Ihave": 4618,
      "Ox": 4619,
      "Pos": 4620,
      "Sha": 4621,
      "Ter": 4622,
      "Wizard": 4623,
      "Wisteria": 4624,
      "aily": 4625,
      "cher": 4626,
      "een": 4627,
      "lord": 4628,
      "mies": 4629,
      "oil": 4630,
      "park": 4631,
      "rt": 4632,
      "rist": 4633,
      "sis": 4634,
      "sne": 4635,
      "south": 4636,
      "receive": 4637,
      "haired": 4638,
      "andDorothy": 4639,
      "meal": 4640,
      "stir": 4641,
      "stage": 4642,
      "bel": 4643,
      "roll": 4644,
      "rily": 4645,
      "Their": 4646,
      "lier": 4647,
      "acious": 4648,
      "irregular": 4649,
      "cook": 4650,
      "oomy": 4651,
      "absent": 4652,
      "butter": 4653,
      "traced": 4654,
      "Itwas": 4655,
      "exhaust": 4656,
      "gered": 4657,
      "peri": 4658,
      "afford": 4659,
      "gloomy": 4660,
      "prof": 4661,
      "grad": 4662,
      "ounced": 4663,
      "Stan": 4664,
      "newsp": 4665,
      "sidered": 4666,
      "compli": 4667,
      "sche": 4668,
      "attend": 4669,
      "remarks": 4670,
      "shop": 4671,
      "returning": 4672,
      "secre": 4673,
      "startled": 4674,
      "distingu": 4675,
      "sentence": 4676,
      "woods": 4677,
      "falling": 4678,
      "directed": 4679,
      "enemies": 4680,
      "besides": 4681,
      "realized": 4682,
      "suggestion": 4683,
      "meeting": 4684,
      "gravely": 4685,
      "occasional": 4686,
      "rocks": 4687,
      "fortunately": 4688,
      "successful": 4689,
      "born": 4690,
      "breathing": 4691,
      "keenly": 4692,
      "gaunt": 4693,
      "Tinker": 4694,
      "packet": 4695,
      "spectacles": 4696,
      "neighbourhood": 4697,
      "clouds": 4698,
      "inclined": 4699,
      "jumped": 4700,
      "rigid": 4701,
      "scrib": 4702,
      "intimate": 4703,
      "initials": 4704,
      "Starkey": 4705,
      "Meanwhile": 4706,
      "newspap": 4707,
      ".'": 4708,
      "40": 4709,
      "75": 4710,
      "83": 4711,
      "Care": 4712,
      "Dev": 4713,
      "Gu": 4714,
      "Hold": 4715,
      "Hum": 4716,
      "Hunter": 4717,
      "Last": 4718,
      "Over": 4719,
      "Pl": 4720,
      "Ser": 4721,
      "Sar": 4722,
      "Scan": 4723,
      "],": 4724,
      "cared": 4725,
      "dared": 4726,
      "gings": 4727,
      "na": 4728,
      "oh": 4729,
      "obey": 4730,
      "poured": 4731,
      "plot": 4732,
      "twit": 4733,
      "—“": 4734,
      "ﬁend": 4735,
      "hell": 4736,
      "thegirl": 4737,
      "angled": 4738,
      "assa": 4739,
      "itual": 4740,
      "ingen": 4741,
      "mew": 4742,
      "roo": 4743,
      "sages": 4744,
      "acre": 4745,
      "delay": 4746,
      "dom": 4747,
      "unk": 4748,
      "conject": 4749,
      "appreci": 4750,
      "Italian": 4751,
      "Head": 4752,
      "plun": 4753,
      "permission": 4754,
      "handker": 4755,
      "icine": 4756,
      "affe": 4757,
      "bless": 4758,
      "project": 4759,
      "progress": 4760,
      "ignor": 4761,
      "princi": 4762,
      "rud": 4763,
      "smoo": 4764,
      "sphere": 4765,
      "spread": 4766,
      "rested": 4767,
      "tors": 4768,
      "torted": 4769,
      "uding": 4770,
      "chem": 4771,
      "desired": 4772,
      "farmer": 4773,
      "ggard": 4774,
      "surface": 4775,
      "clearing": 4776,
      "layers": 4777,
      "interests": 4778,
      "fellows": 4779,
      "condition": 4780,
      "crowded": 4781,
      "secure": 4782,
      "signed": 4783,
      "meantime": 4784,
      "trivial": 4785,
      "ffs": 4786,
      "rison": 4787,
      "pockets": 4788,
      "patch": 4789,
      "suspected": 4790,
      "crying": 4791,
      "prompt": 4792,
      "swept": 4793,
      "Boss": 4794,
      "leads": 4795,
      "summer": 4796,
      "numer": 4797,
      "THEWONDERFUI": 4798,
      "arrival": 4799,
      "suspicious": 4800,
      "judgment": 4801,
      "theWitch": 4802,
      "theWickedWitch": 4803,
      "spirits": 4804,
      "lucky": 4805,
      "furniture": 4806,
      "foolish": 4807,
      "humble": 4808,
      "wounded": 4809,
      "gesture": 4810,
      "alternative": 4811,
      "million": 4812,
      "limbs": 4813,
      "conclusions": 4814,
      "discovery": 4815,
      "brilliant": 4816,
      "hypothesis": 4817,
      "frame": 4818,
      "modern": 4819,
      "crocodile": 4820,
      "95": 4821,
      "Aug": 4822,
      "Clair": 4823,
      "Gen": 4824,
      "HO": 4825,
      "Hil": 4826,
      "LO": 4827,
      "League": 4828,
      "Might": 4829,
      "Put": 4830,
      "Wind": 4831,
      "aman": 4832,
      "awaiting": 4833,
      "athed": 4834,
      "bas": 4835,
      "bare": 4836,
      "dance": 4837,
      "dried": 4838,
      "eh": 4839,
      "ect": 4840,
      "frock": 4841,
      "gue": 4842,
      "ghast": 4843,
      "iries": 4844,
      "jack": 4845,
      "knot": 4846,
      "oath": 4847,
      "phi": 4848,
      "sou": 4849,
      "wid": 4850,
      "ﬁred": 4851,
      "thel": 4852,
      "ina": 4853,
      "inquest": 4854,
      "inches": 4855,
      "recei": 4856,
      "reﬂe": 4857,
      "outer": 4858,
      "haggard": 4859,
      "issu": 4860,
      "itis": 4861,
      "toher": 4862,
      "toward": 4863,
      "ller": 4864,
      "hate": 4865,
      "stam": 4866,
      "roar": 4867,
      "chur": 4868,
      "hosp": 4869,
      "del": 4870,
      "ource": 4871,
      "considered": 4872,
      "exped": 4873,
      "downstairs": 4874,
      "brist": 4875,
      "clist": 4876,
      "medicine": 4877,
      "Water": 4878,
      "nights": 4879,
      "dish": 4880,
      "ounce": 4881,
      "obtained": 4882,
      "doorway": 4883,
      "moral": 4884,
      "spark": 4885,
      "laze": 4886,
      "wich": 4887,
      "greatly": 4888,
      "previous": 4889,
      "stole": 4890,
      "desert": 4891,
      "deny": 4892,
      "coronet": 4893,
      "pile": 4894,
      "tically": 4895,
      "string": 4896,
      "strain": 4897,
      "bushes": 4898,
      "solve": 4899,
      "incess": 4900,
      "signiﬁ": 4901,
      "fears": 4902,
      "north": 4903,
      "footsteps": 4904,
      "Ange": 4905,
      "risen": 4906,
      "imagination": 4907,
      "warrant": 4908,
      "grief": 4909,
      "grizz": 4910,
      "confeder": 4911,
      "shadows": 4912,
      "maids": 4913,
      "Boscombe": 4914,
      "milk": 4915,
      "trusted": 4916,
      "guessed": 4917,
      "anxiety": 4918,
      "describe": 4919,
      "advise": 4920,
      "seriously": 4921,
      "plainly": 4922,
      "recognized": 4923,
      "recognize": 4924,
      "humour": 4925,
      "Problem": 4926,
      "bitterly": 4927,
      "explo": 4928,
      "descended": 4929,
      "drunk": 4930,
      "limited": 4931,
      "backtoKansas": 4932,
      "brandy": 4933,
      "Cecil": 4934,
      "trousers": 4935,
      "Bohemia": 4936,
      "coachman": 4937,
      "Half": 4938,
      "thief": 4939,
      "Gibson": 4940,
      "Sarah": 4941,
      "Scanlan": 4942,
      "90": 4943,
      "Brun": 4944,
      "Blaze": 4945,
      "Cushing": 4946,
      "Lane": 4947,
      "Min": 4948,
      "Men": 4949,
      "Next": 4950,
      "Nature": 4951,
      "Por": 4952,
      "Pher": 4953,
      "Sup": 4954,
      "Spe": 4955,
      "Satur": 4956,
      "ben": 4957,
      "dwell": 4958,
      "east": 4959,
      "eches": 4960,
      "mitted": 4961,
      "tas": 4962,
      "uce": 4963,
      "vital": 4964,
      "wan": 4965,
      "inch": 4966,
      "rely": 4967,
      "reference": 4968,
      "erpillar": 4969,
      "educ": 4970,
      "toe": 4971,
      "tool": 4972,
      "andhe": 4973,
      "inging": 4974,
      "atmo": 4975,
      "hated": 4976,
      "mered": 4977,
      "leap": 4978,
      "youare": 4979,
      "thatthe": 4980,
      "wearing": 4981,
      "hadbeen": 4982,
      "lifted": 4983,
      "accustomed": 4984,
      "coo": 4985,
      "ooting": 4986,
      "agents": 4987,
      "agitation": 4988,
      "amond": 4989,
      "redskins": 4990,
      "concent": 4991,
      "contemp": 4992,
      "exec": 4993,
      "mpen": 4994,
      "ureau": 4995,
      "foreign": 4996,
      "process": 4997,
      "acting": 4998,
      "disgu": 4999,
      "Stack": 5000,
      "morn": 5001,
      "spend": 5002,
      "speci": 5003,
      "diamond": 5004,
      "prepar": 5005,
      "curve": 5006,
      "chill": 5007,
      "setting": 5008,
      "moments": 5009,
      "jealous": 5010,
      "ization": 5011,
      "Toby": 5012,
      "hearing": 5013,
      "pression": 5014,
      "strug": 5015,
      "steady": 5016,
      "sens": 5017,
      "metal": 5018,
      "Comp": 5019,
      "cabman": 5020,
      "strongly": 5021,
      "whistle": 5022,
      "ofﬁcer": 5023,
      "lawyer": 5024,
      "troubled": 5025,
      "apply": 5026,
      "smoked": 5027,
      "fashioned": 5028,
      "Scow": 5029,
      "chosen": 5030,
      "detectives": 5031,
      "difference": 5032,
      "commonplace": 5033,
      "Shoscombe": 5034,
      "indicated": 5035,
      "travellers": 5036,
      "grotes": 5037,
      "ﬁfteen": 5038,
      "respectable": 5039,
      "Anything": 5040,
      "ﬁelds": 5041,
      "immediate": 5042,
      "neighbours": 5043,
      "positions": 5044,
      "Oldacre": 5045,
      "belonged": 5046,
      "endeavoured": 5047,
      "Precisely": 5048,
      "chuckled": 5049,
      "cellar": 5050,
      "brisk": 5051,
      "period": 5052,
      "Stanley": 5053,
      "chemical": 5054,
      "August": 5055,
      "grotesque": 5056,
      "Aunt": 5057,
      "BI": 5058,
      "Iwas": 5059,
      "Ju": 5060,
      "Nev": 5061,
      "PE": 5062,
      "Since": 5063,
      "Tut": 5064,
      "Wait": 5065,
      "York": 5066,
      "aly": 5067,
      "bureau": 5068,
      "fy": 5069,
      "fare": 5070,
      "jac": 5071,
      "male": 5072,
      "paren": 5073,
      "scient": 5074,
      "tit": 5075,
      "ﬂes": 5076,
      "heir": 5077,
      "invent": 5078,
      "rene": 5079,
      "recur": 5080,
      "hathe": 5081,
      "enced": 5082,
      "ofthem": 5083,
      "arily": 5084,
      "aroused": 5085,
      "ths": 5086,
      "thread": 5087,
      "stup": 5088,
      "legged": 5089,
      "secured": 5090,
      "wasted": 5091,
      "entrance": 5092,
      "coinc": 5093,
      "nearest": 5094,
      "doll": 5095,
      "peering": 5096,
      "shoot": 5097,
      "shel": 5098,
      "shehad": 5099,
      "extr": 5100,
      "ustrious": 5101,
      "ulation": 5102,
      "anting": 5103,
      "ples": 5104,
      "gossi": 5105,
      "whence": 5106,
      "propose": 5107,
      "brut": 5108,
      "intently": 5109,
      "iger": 5110,
      "group": 5111,
      "shame": 5112,
      "shaven": 5113,
      "retion": 5114,
      "ruined": 5115,
      "disap": 5116,
      "disease": 5117,
      "obst": 5118,
      "useless": 5119,
      "winding": 5120,
      "everyone": 5121,
      "askedDorothy": 5122,
      "counter": 5123,
      "appeal": 5124,
      "closing": 5125,
      "voy": 5126,
      "quire": 5127,
      "charming": 5128,
      "runs": 5129,
      "shirt": 5130,
      "stein": 5131,
      "steel": 5132,
      "senses": 5133,
      "roads": 5134,
      "barrel": 5135,
      "color": 5136,
      "engage": 5137,
      "volume": 5138,
      "extent": 5139,
      "admitted": 5140,
      "criminals": 5141,
      "India": 5142,
      "particularly": 5143,
      "generally": 5144,
      "obviously": 5145,
      "duties": 5146,
      "beasts": 5147,
      "panion": 5148,
      "destro": 5149,
      "hastily": 5150,
      "efforts": 5151,
      "hunting": 5152,
      "Liver": 5153,
      "Merri": 5154,
      "mounted": 5155,
      "mountains": 5156,
      "music": 5157,
      "admiration": 5158,
      "sternly": 5159,
      "departed": 5160,
      "burglar": 5161,
      "Caterpillar": 5162,
      "development": 5163,
      "government": 5164,
      "peeped": 5165,
      "argument": 5166,
      "Jonathan": 5167,
      "sufﬁcient": 5168,
      "increased": 5169,
      "liberty": 5170,
      "popular": 5171,
      "Cunningham": 5172,
      "suffe": 5173,
      "handkerchief": 5174,
      "Hilton": 5175,
      "ghastly": 5176,
      "church": 5177,
      "signiﬁcan": 5178,
      "Saturday": 5179,
      "specimen": 5180,
      "31": 5181,
      "36": 5182,
      "70": 5183,
      "Agra": 5184,
      "Cop": 5185,
      "Eng": 5186,
      "Gl": 5187,
      "Gables": 5188,
      "Hay": 5189,
      "Open": 5190,
      "Pal": 5191,
      "Sur": 5192,
      "TLE": 5193,
      "Tiger": 5194,
      "bon": 5195,
      "block": 5196,
      "cof": 5197,
      "ccles": 5198,
      "dled": 5199,
      "dates": 5200,
      "dign": 5201,
      "drug": 5202,
      "ellow": 5203,
      "fin": 5204,
      "flow": 5205,
      "field": 5206,
      "groom": 5207,
      "gaze": 5208,
      "hunt": 5209,
      "mail": 5210,
      "nail": 5211,
      "pend": 5212,
      "rone": 5213,
      "sill": 5214,
      "science": 5215,
      "tar": 5216,
      "tun": 5217,
      "wag": 5218,
      "wine": 5219,
      "zes": 5220,
      "ﬁcial": 5221,
      "ﬂung": 5222,
      "repro": 5223,
      "revenge": 5224,
      "eral": 5225,
      "iter": 5226,
      "andsaid": 5227,
      "inge": 5228,
      "stall": 5229,
      "stake": 5230,
      "stains": 5231,
      "wealth": 5232,
      "cock": 5233,
      "coarse": 5234,
      "hoarse": 5235,
      "tiger": 5236,
      "ticket": 5237,
      "timid": 5238,
      "decoder": 5239,
      "unlikely": 5240,
      "cken": 5241,
      "ckled": 5242,
      "exclam": 5243,
      "willing": 5244,
      "plank": 5245,
      "sim": 5246,
      "inkled": 5247,
      "blems": 5248,
      "actions": 5249,
      "rufﬁ": 5250,
      "getic": 5251,
      "dies": 5252,
      "presum": 5253,
      "count": 5254,
      "Mystery": 5255,
      "beds": 5256,
      "rence": 5257,
      "ﬁnds": 5258,
      "cloth": 5259,
      "gging": 5260,
      "surrounded": 5261,
      "attached": 5262,
      "McFar": 5263,
      "McPher": 5264,
      "hearted": 5265,
      "umbled": 5266,
      "chairs": 5267,
      "easier": 5268,
      "struct": 5269,
      "powder": 5270,
      "capital": 5271,
      "sket": 5272,
      "engine": 5273,
      "hopeless": 5274,
      "Woodley": 5275,
      "drag": 5276,
      "considerably": 5277,
      "mischief": 5278,
      "misfortune": 5279,
      "accounts": 5280,
      "midnight": 5281,
      "Second": 5282,
      "striking": 5283,
      "creatures": 5284,
      "visitors": 5285,
      "particulars": 5286,
      "Most": 5287,
      "reported": 5288,
      "indications": 5289,
      "travelled": 5290,
      "beaten": 5291,
      "astonished": 5292,
      "porter": 5293,
      "branch": 5294,
      "wiser": 5295,
      "splend": 5296,
      "Susan": 5297,
      "higher": 5298,
      "darted": 5299,
      "declared": 5300,
      "comrade": 5301,
      "Lyons": 5302,
      "lamps": 5303,
      "Garrideb": 5304,
      "Grimpen": 5305,
      "GoldenCap": 5306,
      "ILL": 5307,
      "Trevor": 5308,
      "consulting": 5309,
      "frequently": 5310,
      "Blessington": 5311,
      "conceivable": 5312,
      "STO": 5313,
      "subtle": 5314,
      "Possibly": 5315,
      "Carey": 5316,
      "atmosphere": 5317,
      "Stackhurst": 5318,
      ".^": 5319,
      "46": 5320,
      "85": 5321,
      "Amber": 5322,
      "Bu": 5323,
      "Bet": 5324,
      "Bru": 5325,
      "CK": 5326,
      "Dis": 5327,
      "Em": 5328,
      "Eccles": 5329,
      "Get": 5330,
      "Ham": 5331,
      "Hill": 5332,
      "Many": 5333,
      "Mel": 5334,
      "PART": 5335,
      "Ritual": 5336,
      "Sal": 5337,
      "Under": 5338,
      "bol": 5339,
      "cit": 5340,
      "cill": 5341,
      "dancing": 5342,
      "data": 5343,
      "ejac": 5344,
      "fig": 5345,
      "fire": 5346,
      "flying": 5347,
      "gazing": 5348,
      "gloves": 5349,
      "lap": 5350,
      "mort": 5351,
      "muttered": 5352,
      "pted": 5353,
      "tween": 5354,
      "ﬁd": 5355,
      "input": 5356,
      "inhabit": 5357,
      "recall": 5358,
      "relie": 5359,
      "ision": 5360,
      "asm": 5361,
      "ascertain": 5362,
      "todo": 5363,
      "toget": 5364,
      "ency": 5365,
      "encoder": 5366,
      "inger": 5367,
      "tholo": 5368,
      "stab": 5369,
      "stain": 5370,
      "staff": 5371,
      "hid": 5372,
      "chanced": 5373,
      "wels": 5374,
      "entering": 5375,
      "advis": 5376,
      "TheScarecrow": 5377,
      "cot": 5378,
      "whip": 5379,
      "ets": 5380,
      "mance": 5381,
      "agitated": 5382,
      "moat": 5383,
      "fel": 5384,
      "deg": 5385,
      "aming": 5386,
      "amount": 5387,
      "unpleasant": 5388,
      "lover": 5389,
      "loving": 5390,
      "lott": 5391,
      "expres": 5392,
      "exult": 5393,
      "quet": 5394,
      "seek": 5395,
      "couldnot": 5396,
      "simil": 5397,
      "brass": 5398,
      "reaty": 5399,
      "poses": 5400,
      "thinks": 5401,
      "smer": 5402,
      "span": 5403,
      "scraw": 5404,
      "restless": 5405,
      "rows": 5406,
      "waved": 5407,
      "guine": 5408,
      "guilt": 5409,
      "awson": 5410,
      "identity": 5411,
      "frag": 5412,
      "heartily": 5413,
      "interval": 5414,
      "massive": 5415,
      "onderful": 5416,
      "aught": 5417,
      "barred": 5418,
      "kindness": 5419,
      "ucked": 5420,
      "paused": 5421,
      "Bartholo": 5422,
      "calcul": 5423,
      "warned": 5424,
      "naro": 5425,
      "brothers": 5426,
      "fury": 5427,
      "leader": 5428,
      "killing": 5429,
      "arrive": 5430,
      "painted": 5431,
      "cupboard": 5432,
      "incidents": 5433,
      "neighbor": 5434,
      "crop": 5435,
      "Abbey": 5436,
      "assistant": 5437,
      "deduction": 5438,
      "swift": 5439,
      "injured": 5440,
      "translation": 5441,
      "busts": 5442,
      "proceeded": 5443,
      "instructions": 5444,
      "loudly": 5445,
      "addition": 5446,
      "mix": 5447,
      "searches": 5448,
      "unique": 5449,
      "impatience": 5450,
      "impatiently": 5451,
      "faithful": 5452,
      "Major": 5453,
      "introduce": 5454,
      "separate": 5455,
      "authority": 5456,
      "staggered": 5457,
      "grasp": 5458,
      "pearl": 5459,
      "language": 5460,
      "system": 5461,
      "Alec": 5462,
      "involved": 5463,
      "Pycroft": 5464,
      "enormous": 5465,
      "QUE": 5466,
      "fruit": 5467,
      "wretched": 5468,
      "secrecy": 5469,
      "scribbled": 5470,
      "taste": 5471,
      "Liverpool": 5472,
      "cofﬁn": 5473,
      "Amberley": 5474,
      "Bruce": 5475,
      "cillor": 5476,
      "similar": 5477,
      "Bartholomew": 5478,
      "'^": 5479,
      "47": 5480,
      "65": 5481,
      "88": 5482,
      "Aust": 5483,
      "Ber": 5484,
      "Bill": 5485,
      "Bann": 5486,
      "BBI": 5487,
      "Cub": 5488,
      "Down": 5489,
      "Free": 5490,
      "Glor": 5491,
      "Grange": 5492,
      "High": 5493,
      "IN": 5494,
      "Lat": 5495,
      "PER": 5496,
      "Please": 5497,
      "Rus": 5498,
      "Sa": 5499,
      "Sever": 5500,
      "Tran": 5501,
      "aheart": 5502,
      "cage": 5503,
      "dre": 5504,
      "dirty": 5505,
      "fant": 5506,
      "faded": 5507,
      "gates": 5508,
      "iers": 5509,
      "kin": 5510,
      "lun": 5511,
      "loun": 5512,
      "ost": 5513,
      "pig": 5514,
      "prem": 5515,
      "paced": 5516,
      "pains": 5517,
      "rad": 5518,
      "rout": 5519,
      "shat": 5520,
      "sending": 5521,
      "ta": 5522,
      "tling": 5523,
      "vat": 5524,
      "vid": 5525,
      "vity": 5526,
      "winter": 5527,
      "zing": 5528,
      "”—": 5529,
      "ﬁce": 5530,
      "ﬁts": 5531,
      "ﬂing": 5532,
      "ﬂow": 5533,
      "rele": 5534,
      "researches": 5535,
      "eness": 5536,
      "andshe": 5537,
      "ofOz": 5538,
      "ardo": 5539,
      "stuck": 5540,
      "stones": 5541,
      "sealed": 5542,
      "begged": 5543,
      "robbery": 5544,
      "ception": 5545,
      "alittle": 5546,
      "adop": 5547,
      "forbid": 5548,
      "accur": 5549,
      "irr": 5550,
      "abstr": 5551,
      "negle": 5552,
      "herry": 5553,
      "dot": 5554,
      "doyou": 5555,
      "shr": 5556,
      "shine": 5557,
      "owned": 5558,
      "shed": 5559,
      "exhi": 5560,
      "yourselves": 5561,
      "ulous": 5562,
      "pla": 5563,
      "plate": 5564,
      "song": 5565,
      "sian": 5566,
      "persu": 5567,
      "perple": 5568,
      "overthe": 5569,
      "problems": 5570,
      "opium": 5571,
      "asser": 5572,
      "actual": 5573,
      "pract": 5574,
      "eling": 5575,
      "rude": 5576,
      "Stand": 5577,
      "complic": 5578,
      "scared": 5579,
      "preter": 5580,
      "waits": 5581,
      "surgeon": 5582,
      "attle": 5583,
      "avail": 5584,
      "smaller": 5585,
      "awn": 5586,
      "diff": 5587,
      "market": 5588,
      "conscience": 5589,
      "Jove": 5590,
      "insist": 5591,
      "Through": 5592,
      "presents": 5593,
      "joint": 5594,
      "Beeches": 5595,
      "publ": 5596,
      "deepest": 5597,
      "footmarks": 5598,
      "stronger": 5599,
      "fourth": 5600,
      "Within": 5601,
      "beganto": 5602,
      "pause": 5603,
      "trainer": 5604,
      "pretend": 5605,
      "Charing": 5606,
      "lodgings": 5607,
      "maiden": 5608,
      "Halloa": 5609,
      "portion": 5610,
      "violin": 5611,
      "shutters": 5612,
      "Neverland": 5613,
      "polite": 5614,
      "vari": 5615,
      "repeat": 5616,
      "weapons": 5617,
      "records": 5618,
      "proofs": 5619,
      "wishes": 5620,
      "niﬁ": 5621,
      "intellect": 5622,
      "occupied": 5623,
      "establishment": 5624,
      "railway": 5625,
      "article": 5626,
      "owardly": 5627,
      "comrades": 5628,
      "ofﬁcers": 5629,
      "RABBI": 5630,
      "Warren": 5631,
      "stooped": 5632,
      "Dunbar": 5633,
      "Africa": 5634,
      "Roylott": 5635,
      "thoroughly": 5636,
      "Partington": 5637,
      "recollection": 5638,
      "Turner": 5639,
      "soothing": 5640,
      "obscure": 5641,
      "amusement": 5642,
      "Curly": 5643,
      "Gennaro": 5644,
      "expedition": 5645,
      "Angel": 5646,
      "Brunton": 5647,
      "coincidence": 5648,
      "brutal": 5649,
      "McFarlane": 5650,
      "McPherson": 5651,
      "Bannister": 5652,
      "Cubitt": 5653,
      "fantastic": 5654,
      "RABBIT": 5655,
      "45": 5656,
      "60": 5657,
      "Ano": 5658,
      "CA": 5659,
      "Cado": 5660,
      "El": 5661,
      "Emp": 5662,
      "Each": 5663,
      "Ems": 5664,
      "Jim": 5665,
      "Mad": 5666,
      "PI": 5667,
      "Sing": 5668,
      "Ted": 5669,
      "Win": 5670,
      "ban": 5671,
      "bing": 5672,
      "bould": 5673,
      "dent": 5674,
      "ders": 5675,
      "fight": 5676,
      "gig": 5677,
      "ii": 5678,
      "kh": 5679,
      "mmed": 5680,
      "nation": 5681,
      "national": 5682,
      "ox": 5683,
      "pha": 5684,
      "pages": 5685,
      "pushing": 5686,
      "sca": 5687,
      "stor": 5688,
      "snar": 5689,
      "source": 5690,
      "tender": 5691,
      "wh": 5692,
      "wink": 5693,
      "ﬂash": 5694,
      "inspe": 5695,
      "relat": 5696,
      "ashe": 5697,
      "esc": 5698,
      "atonce": 5699,
      "arter": 5700,
      "sty": 5701,
      "bees": 5702,
      "beli": 5703,
      "beating": 5704,
      "veil": 5705,
      "chose": 5706,
      "novel": 5707,
      "verse": 5708,
      "sothat": 5709,
      "whir": 5710,
      "abrup": 5711,
      "posure": 5712,
      "poker": 5713,
      "button": 5714,
      "shooting": 5715,
      "apsed": 5716,
      "Its": 5717,
      "shelf": 5718,
      "resist": 5719,
      "indis": 5720,
      "indign": 5721,
      "fairies": 5722,
      "acknow": 5723,
      "sibility": 5724,
      "mented": 5725,
      "harsh": 5726,
      "glare": 5727,
      "crimes": 5728,
      "bride": 5729,
      "cameto": 5730,
      "earn": 5731,
      "earlier": 5732,
      "shared": 5733,
      "elbow": 5734,
      "taining": 5735,
      "vile": 5736,
      "lighted": 5737,
      "screen": 5738,
      "minated": 5739,
      "chester": 5740,
      "dict": 5741,
      "wax": 5742,
      "wrist": 5743,
      "instance": 5744,
      "partly": 5745,
      "supposition": 5746,
      "support": 5747,
      "iously": 5748,
      "awake": 5749,
      "jewels": 5750,
      "Att": 5751,
      "stepfather": 5752,
      "doubts": 5753,
      "hearts": 5754,
      "content": 5755,
      "droop": 5756,
      "values": 5757,
      "penet": 5758,
      "expecting": 5759,
      "legal": 5760,
      "Hosmer": 5761,
      "Quick": 5762,
      "Really": 5763,
      "characteristic": 5764,
      "Naval": 5765,
      "elect": 5766,
      "reaching": 5767,
      "genius": 5768,
      "Councillor": 5769,
      "travel": 5770,
      "screaming": 5771,
      "tiny": 5772,
      "deduce": 5773,
      "attacked": 5774,
      "sadly": 5775,
      "hunter": 5776,
      "admirable": 5777,
      "searched": 5778,
      "student": 5779,
      "European": 5780,
      "rattle": 5781,
      "rattled": 5782,
      "Priory": 5783,
      "terribly": 5784,
      "climbed": 5785,
      "politic": 5786,
      "ronic": 5787,
      "defence": 5788,
      "ofﬁces": 5789,
      "horribly": 5790,
      "intelligence": 5791,
      "Paris": 5792,
      "eggs": 5793,
      "exercise": 5794,
      "whowas": 5795,
      "according": 5796,
      "incredible": 5797,
      "Chapter": 5798,
      "Devon": 5799,
      "affection": 5800,
      "hospital": 5801,
      "grizzled": 5802,
      "confederate": 5803,
      "Company": 5804,
      "Scowrers": 5805,
      "AuntEm": 5806,
      "Copper": 5807,
      "Gloria": 5808,
      "Several": 5809,
      "Emsworth": 5810,
      "),": 5811,
      ".)": 5812,
      "..": 5813,
      "28": 5814,
      "35": 5815,
      "39": 5816,
      "80": 5817,
      "Cir": 5818,
      "During": 5819,
      "Ill": 5820,
      "Mart": 5821,
      "Park": 5822,
      "PPER": 5823,
      "Sol": 5824,
      "Sec": 5825,
      "School": 5826,
      "Treaty": 5827,
      "Wo": 5828,
      "dan": 5829,
      "dazed": 5830,
      "fran": 5831,
      "fﬂed": 5832,
      "gies": 5833,
      "gery": 5834,
      "hud": 5835,
      "ime": 5836,
      "icted": 5837,
      "kid": 5838,
      "mask": 5839,
      "mass": 5840,
      "pon": 5841,
      "pink": 5842,
      "pave": 5843,
      "pace": 5844,
      "pardon": 5845,
      "ray": 5846,
      "rush": 5847,
      "sworn": 5848,
      "swore": 5849,
      "sformer": 5850,
      "tut": 5851,
      "tast": 5852,
      "tles": 5853,
      "xtable": 5854,
      "—’": 5855,
      "ﬂame": 5856,
      "theGreat": 5857,
      "inent": 5858,
      "rend": 5859,
      "replaced": 5860,
      "erable": 5861,
      "iso": 5862,
      "istr": 5863,
      "itution": 5864,
      "toes": 5865,
      "toms": 5866,
      "enched": 5867,
      "andthat": 5868,
      "orgi": 5869,
      "lla": 5870,
      "thunder": 5871,
      "members": 5872,
      "stat": 5873,
      "states": 5874,
      "stars": 5875,
      "bears": 5876,
      "roared": 5877,
      "rolling": 5878,
      "chop": 5879,
      "nobody": 5880,
      "adding": 5881,
      "forgive": 5882,
      "access": 5883,
      "noted": 5884,
      "whim": 5885,
      "tial": 5886,
      "ament": 5887,
      "unted": 5888,
      "tear": 5889,
      "quis": 5890,
      "ques": 5891,
      "raising": 5892,
      "akened": 5893,
      "boards": 5894,
      "handled": 5895,
      "blur": 5896,
      "glared": 5897,
      "prospect": 5898,
      "isten": 5899,
      "broug": 5900,
      "clenched": 5901,
      "assass": 5902,
      "sham": 5903,
      "retreat": 5904,
      "eless": 5905,
      "Whatever": 5906,
      "clearer": 5907,
      "disappear": 5908,
      "services": 5909,
      "mured": 5910,
      "specul": 5911,
      "scrap": 5912,
      "turns": 5913,
      "chal": 5914,
      "chase": 5915,
      "curled": 5916,
      "curtains": 5917,
      "giveme": 5918,
      "attitude": 5919,
      "corro": 5920,
      "coroner": 5921,
      "walks": 5922,
      "parted": 5923,
      "remarkably": 5924,
      "happens": 5925,
      "century": 5926,
      "fron": 5927,
      "Mormon": 5928,
      "licit": 5929,
      "crown": 5930,
      "crash": 5931,
      "kennel": 5932,
      "drift": 5933,
      "buy": 5934,
      "colonel": 5935,
      "secrets": 5936,
      "Murdoch": 5937,
      "^^^^": 5938,
      "patched": 5939,
      "considering": 5940,
      "highly": 5941,
      "lately": 5942,
      "riding": 5943,
      "picking": 5944,
      "Someone": 5945,
      "relation": 5946,
      "curiously": 5947,
      "wilder": 5948,
      "sleeping": 5949,
      "directions": 5950,
      "writer": 5951,
      "Brad": 5952,
      "andtheLion": 5953,
      "brightly": 5954,
      "ibank": 5955,
      "Monkey": 5956,
      "sprung": 5957,
      "rapid": 5958,
      "borne": 5959,
      "Uncle": 5960,
      "genial": 5961,
      "guarded": 5962,
      "possessed": 5963,
      "decide": 5964,
      "motionless": 5965,
      "depends": 5966,
      "inquired": 5967,
      "crept": 5968,
      "softly": 5969,
      "injury": 5970,
      "III": 5971,
      "dimly": 5972,
      "conviction": 5973,
      "Lucas": 5974,
      "strode": 5975,
      "quality": 5976,
      "favourite": 5977,
      "introduced": 5978,
      "rascal": 5979,
      "developments": 5980,
      "separated": 5981,
      "pursued": 5982,
      "Hugo": 5983,
      "Huxtable": 5984,
      "Presently": 5985,
      "drunken": 5986,
      "physical": 5987,
      "apartment": 5988,
      "ingedMonkeys": 5989,
      "Six": 5990,
      "annoy": 5991,
      "referred": 5992,
      "dramatic": 5993,
      "ascended": 5994,
      "score": 5995,
      "thrill": 5996,
      "analysis": 5997,
      "moustache": 5998,
      "gradually": 5999,
      "newspaper": 6000,
      "plunged": 6001,
      "numerous": 6002,
      "Windibank": 6003,
      "jacket": 6004,
      "Waterloo": 6005,
      "PEPPER": 6006,
      "scientiﬁc": 6007,
      "gossip": 6008,
      "Surrey": 6009,
      "exclamation": 6010,
      "citiz": 6011,
      "Transformer": 6012,
      "Another": 6013,
      "PIG": 6014,
      "brougham": 6015,
      "21": 6016,
      "37": 6017,
      "87": 6018,
      "89": 6019,
      ":\"": 6020,
      "Aur": 6021,
      "Athel": 6022,
      "Bow": 6023,
      "Com": 6024,
      "Cons": 6025,
      "Garden": 6026,
      "Ir": 6027,
      "Kent": 6028,
      "ME": 6029,
      "Mid": 6030,
      "Neither": 6031,
      "Ret": 6032,
      "amy": 6033,
      "ahead": 6034,
      "bite": 6035,
      "bade": 6036,
      "eli": 6037,
      "gif": 6038,
      "hint": 6039,
      "jer": 6040,
      "ket": 6041,
      "mister": 6042,
      "ote": 6043,
      "pher": 6044,
      "rut": 6045,
      "rushing": 6046,
      "sinking": 6047,
      "ums": 6048,
      "’—": 6049,
      "ﬂo": 6050,
      "ﬂew": 6051,
      "heel": 6052,
      "thegreen": 6053,
      "invisible": 6054,
      "regi": 6055,
      "resumed": 6056,
      "tomake": 6057,
      "encies": 6058,
      "andlooked": 6059,
      "andtheScarecrow": 6060,
      "orter": 6061,
      "orous": 6062,
      "atall": 6063,
      "stare": 6064,
      "sters": 6065,
      "stim": 6066,
      "betray": 6067,
      "vet": 6068,
      "wash": 6069,
      "washed": 6070,
      "chant": 6071,
      "uted": 6072,
      "somb": 6073,
      "TheLion": 6074,
      "limp": 6075,
      "likes": 6076,
      "aches": 6077,
      "abled": 6078,
      "kered": 6079,
      "amused": 6080,
      "exposed": 6081,
      "exagger": 6082,
      "teach": 6083,
      "Were": 6084,
      "sons": 6085,
      "Young": 6086,
      "anywhere": 6087,
      "inker": 6088,
      "inkies": 6089,
      "ically": 6090,
      "blown": 6091,
      "protr": 6092,
      "itect": 6093,
      "cription": 6094,
      "acts": 6095,
      "retain": 6096,
      "retary": 6097,
      "reader": 6098,
      "rubbing": 6099,
      "Stoner": 6100,
      "angrily": 6101,
      "screw": 6102,
      "resting": 6103,
      "goodness": 6104,
      "mighty": 6105,
      "minent": 6106,
      "design": 6107,
      "closer": 6108,
      "surround": 6109,
      "efﬁ": 6110,
      "landlord": 6111,
      "supreme": 6112,
      "parall": 6113,
      "murmured": 6114,
      "crit": 6115,
      "charm": 6116,
      "dete": 6117,
      "shill": 6118,
      "sleeper": 6119,
      "normal": 6120,
      "prize": 6121,
      "skull": 6122,
      "ferences": 6123,
      "Without": 6124,
      "learning": 6125,
      "masterful": 6126,
      "mothers": 6127,
      "confused": 6128,
      "continually": 6129,
      "totheEmeraldCity": 6130,
      "murderous": 6131,
      "expressed": 6132,
      "ierce": 6133,
      "wildly": 6134,
      "versity": 6135,
      "cigars": 6136,
      "effects": 6137,
      "Arm": 6138,
      "reports": 6139,
      "tofthe": 6140,
      "movement": 6141,
      "freely": 6142,
      "indicate": 6143,
      "stretch": 6144,
      "explanations": 6145,
      "attempted": 6146,
      "ugly": 6147,
      "factor": 6148,
      "weakness": 6149,
      "Everything": 6150,
      "assumed": 6151,
      "magniﬁ": 6152,
      "soldiers": 6153,
      "deductions": 6154,
      "planned": 6155,
      "bachelor": 6156,
      "snapped": 6157,
      "thanks": 6158,
      "nesse": 6159,
      "instrument": 6160,
      "Harrison": 6161,
      "tremend": 6162,
      "tails": 6163,
      "mixed": 6164,
      "wander": 6165,
      "Beside": 6166,
      "threatened": 6167,
      "clergy": 6168,
      "departure": 6169,
      "associated": 6170,
      "measure": 6171,
      "maj": 6172,
      "steadily": 6173,
      "hideous": 6174,
      "cipher": 6175,
      "discretion": 6176,
      "scarce": 6177,
      "hesitated": 6178,
      "conveyed": 6179,
      "LICE": 6180,
      "furiously": 6181,
      "groaned": 6182,
      "distinctly": 6183,
      "Victori": 6184,
      "crisis": 6185,
      "Among": 6186,
      "waistcoat": 6187,
      "Napoleon": 6188,
      "objection": 6189,
      "Oxford": 6190,
      "Suppose": 6191,
      "disguise": 6192,
      "destroyed": 6193,
      "Melas": 6194,
      "PARTY": 6195,
      "premises": 6196,
      "Winchester": 6197,
      "Aurora": 6198,
      "Consider": 6199,
      "sombre": 6200,
      "!—": 6201,
      "50": 6202,
      "69": 6203,
      "84": 6204,
      "ALICE": 6205,
      "Ca": 6206,
      "Coom": 6207,
      "Des": 6208,
      "Gil": 6209,
      "Hather": 6210,
      "Icannot": 6211,
      "Irene": 6212,
      "Land": 6213,
      "Long": 6214,
      "MAD": 6215,
      "Mawson": 6216,
      "Sam": 6217,
      "Trace": 6218,
      "Twice": 6219,
      "UR": 6220,
      "Wool": 6221,
      "Wilder": 6222,
      "Wonderful": 6223,
      "bi": 6224,
      "bat": 6225,
      "bby": 6226,
      "bond": 6227,
      "cue": 6228,
      "ds": 6229,
      "dar": 6230,
      "gin": 6231,
      "gran": 6232,
      "pence": 6233,
      "ration": 6234,
      "roused": 6235,
      "swered": 6236,
      "tyou": 6237,
      "tid": 6238,
      "tapped": 6239,
      "tinted": 6240,
      "uary": 6241,
      "ware": 6242,
      "wake": 6243,
      "wave": 6244,
      "whit": 6245,
      "——”": 6246,
      "heis": 6247,
      "heath": 6248,
      "inthem": 6249,
      "inference": 6250,
      "inﬁnite": 6251,
      "inexp": 6252,
      "antic": 6253,
      "rees": 6254,
      "resolute": 6255,
      "errand": 6256,
      "mechan": 6257,
      "sevent": 6258,
      "beach": 6259,
      "hip": 6260,
      "ghan": 6261,
      "hadn": 6262,
      "acid": 6263,
      "term": 6264,
      "abig": 6265,
      "outrage": 6266,
      "deeper": 6267,
      "suic": 6268,
      "sheep": 6269,
      "quer": 6270,
      "uponthe": 6271,
      "whoever": 6272,
      "ulse": 6273,
      "fax": 6274,
      "plat": 6275,
      "arts": 6276,
      "overlooked": 6277,
      "episo": 6278,
      "Therewere": 6279,
      "shake": 6280,
      "disappointment": 6281,
      "ventil": 6282,
      "mum": 6283,
      "lighting": 6284,
      "friendship": 6285,
      "imper": 6286,
      "store": 6287,
      "workman": 6288,
      "cloak": 6289,
      "begins": 6290,
      "pier": 6291,
      "eryl": 6292,
      "bush": 6293,
      "giant": 6294,
      "follows": 6295,
      "izing": 6296,
      "shoe": 6297,
      "shott": 6298,
      "centric": 6299,
      "murmur": 6300,
      "quivering": 6301,
      "villa": 6302,
      "drawers": 6303,
      "reasonable": 6304,
      "Throne": 6305,
      "contact": 6306,
      "Johnson": 6307,
      "tries": 6308,
      "tricks": 6309,
      "skir": 6310,
      "skill": 6311,
      "notebook": 6312,
      "wondered": 6313,
      "beautif": 6314,
      "shade": 6315,
      "probability": 6316,
      "hammer": 6317,
      "Something": 6318,
      "Norfolk": 6319,
      "liter": 6320,
      "sleepy": 6321,
      "pulling": 6322,
      "choice": 6323,
      "Carfax": 6324,
      "loyal": 6325,
      "Englishman": 6326,
      "concluded": 6327,
      "twist": 6328,
      "confession": 6329,
      "saidtheLion": 6330,
      "succession": 6331,
      "movements": 6332,
      "prints": 6333,
      "hurriedly": 6334,
      "189": 6335,
      "indication": 6336,
      "constant": 6337,
      "Leon": 6338,
      "contrast": 6339,
      "factory": 6340,
      "employed": 6341,
      "destroy": 6342,
      "favor": 6343,
      "deliber": 6344,
      "France": 6345,
      "accused": 6346,
      "threatening": 6347,
      "belongs": 6348,
      "qualities": 6349,
      "lux": 6350,
      "associate": 6351,
      "vereign": 6352,
      "established": 6353,
      "articles": 6354,
      "responsible": 6355,
      "responsibility": 6356,
      "sailor": 6357,
      "discreet": 6358,
      "approaching": 6359,
      "logical": 6360,
      "vengeance": 6361,
      "Stock": 6362,
      "suffering": 6363,
      "crouched": 6364,
      "crouching": 6365,
      "greeted": 6366,
      "feeble": 6367,
      "uneasy": 6368,
      "TEA": 6369,
      "Simpson": 6370,
      "squee": 6371,
      "recommend": 6372,
      "affected": 6373,
      "principal": 6374,
      "Neville": 6375,
      "title": 6376,
      "stupid": 6377,
      "voyage": 6378,
      "flowers": 6379,
      "splendid": 6380,
      "relieved": 6381,
      "degree": 6382,
      "scrawled": 6383,
      "mixture": 6384,
      "shattered": 6385,
      "intellectual": 6386,
      "pavement": 6387,
      "Athelney": 6388,
      "Coombe": 6389,
      "Tracey": 6390,
      "ThroneR": 6391,
      "//": 6392,
      "32": 6393,
      "77": 6394,
      "Ald": 6395,
      "Bad": 6396,
      "Beryl": 6397,
      "Cali": 6398,
      "Eust": 6399,
      "Father": 6400,
      "Idon": 6401,
      "Kind": 6402,
      "Listen": 6403,
      "Mother": 6404,
      "Mane": 6405,
      "Masser": 6406,
      "Ral": 6407,
      "Span": 6408,
      "Wed": 6409,
      "Yellow": 6410,
      "abe": 6411,
      "bay": 6412,
      "bably": 6413,
      "blot": 6414,
      "buncle": 6415,
      "camp": 6416,
      "dup": 6417,
      "damp": 6418,
      "echo": 6419,
      "fter": 6420,
      "gor": 6421,
      "gul": 6422,
      "ix": 6423,
      "iest": 6424,
      "kward": 6425,
      "mould": 6426,
      "mour": 6427,
      "mul": 6428,
      "mice": 6429,
      "psi": 6430,
      "pper": 6431,
      "pical": 6432,
      "rings": 6433,
      "slat": 6434,
      "silly": 6435,
      "tance": 6436,
      "ﬁst": 6437,
      "ﬂag": 6438,
      "ﬂying": 6439,
      "ano": 6440,
      "anti": 6441,
      "rela": 6442,
      "rels": 6443,
      "hap": 6444,
      "asthe": 6445,
      "asshe": 6446,
      "asthey": 6447,
      "ensive": 6448,
      "anda": 6449,
      "andwhen": 6450,
      "andToto": 6451,
      "arthy": 6452,
      "leaf": 6453,
      "level": 6454,
      "beam": 6455,
      "youhave": 6456,
      "velled": 6457,
      "wasthe": 6458,
      "robe": 6459,
      "noth": 6460,
      "sovereign": 6461,
      "limit": 6462,
      "accomp": 6463,
      "accompan": 6464,
      "whipped": 6465,
      "abor": 6466,
      "usive": 6467,
      "ushered": 6468,
      "outs": 6469,
      "outline": 6470,
      "agon": 6471,
      "agood": 6472,
      "thern": 6473,
      "deck": 6474,
      "debt": 6475,
      "ampi": 6476,
      "amazed": 6477,
      "amazing": 6478,
      "amiable": 6479,
      "unnatural": 6480,
      "unlocked": 6481,
      "unnecessary": 6482,
      "peared": 6483,
      "trunk": 6484,
      "shell": 6485,
      "gems": 6486,
      "geese": 6487,
      "caution": 6488,
      "sie": 6489,
      "inkles": 6490,
      "blazing": 6491,
      "glit": 6492,
      "brings": 6493,
      "intent": 6494,
      "clusion": 6495,
      "daylight": 6496,
      "igned": 6497,
      "posal": 6498,
      "readily": 6499,
      "disposition": 6500,
      "disgrace": 6501,
      "remind": 6502,
      "compar": 6503,
      "everywhere": 6504,
      "destru": 6505,
      "passes": 6506,
      "dense": 6507,
      "anched": 6508,
      "curved": 6509,
      "cursed": 6510,
      "ggy": 6511,
      "ggage": 6512,
      "certainty": 6513,
      "Adler": 6514,
      "partner": 6515,
      "smallest": 6516,
      "lington": 6517,
      "awkward": 6518,
      "shore": 6519,
      "quires": 6520,
      "framed": 6521,
      "licate": 6522,
      "licable": 6523,
      "blackmail": 6524,
      "keeps": 6525,
      "visited": 6526,
      "oftheWest": 6527,
      "swarthy": 6528,
      "dumb": 6529,
      "sitive": 6530,
      "priv": 6531,
      "cliff": 6532,
      "energetic": 6533,
      "sounded": 6534,
      "pursuit": 6535,
      "promises": 6536,
      "coldly": 6537,
      "hundreds": 6538,
      "architect": 6539,
      "colleague": 6540,
      "gravel": 6541,
      "andtheTinWoodman": 6542,
      "telegraph": 6543,
      "slam": 6544,
      "More": 6545,
      "staying": 6546,
      "ﬁtting": 6547,
      "Afghan": 6548,
      "saidtheTinWoodman": 6549,
      "banker": 6550,
      "treaty": 6551,
      "squat": 6552,
      "recognised": 6553,
      "product": 6554,
      "dreams": 6555,
      "Blue": 6556,
      "palm": 6557,
      "injuries": 6558,
      "proceedings": 6559,
      "hills": 6560,
      "drinking": 6561,
      "malign": 6562,
      "luggage": 6563,
      "passionate": 6564,
      "burglary": 6565,
      "burglars": 6566,
      "flung": 6567,
      "disturb": 6568,
      "governess": 6569,
      "grasped": 6570,
      "balance": 6571,
      "apology": 6572,
      "Sikh": 6573,
      "kissed": 6574,
      "Frankland": 6575,
      "convey": 6576,
      "fetch": 6577,
      "Holdernesse": 6578,
      "Evans": 6579,
      "precaution": 6580,
      "precautions": 6581,
      "Laur": 6582,
      "provided": 6583,
      "halted": 6584,
      "wolf": 6585,
      "glimmer": 6586,
      "snatched": 6587,
      "Kensing": 6588,
      "congratulate": 6589,
      "divided": 6590,
      "profound": 6591,
      "compliment": 6592,
      "distinguished": 6593,
      "smooth": 6594,
      "souls": 6595,
      "Minister": 6596,
      "sensational": 6597,
      "parents": 6598,
      "suffered": 6599,
      "Glind": 6600,
      "finished": 6601,
      "rufﬁan": 6602,
      "Austral": 6603,
      "escort": 6604,
      "belief": 6605,
      "Attention": 6606,
      "huddled": 6607,
      "assassin": 6608,
      "corrobor": 6609,
      "Irish": 6610,
      "shillings": 6611,
      "magniﬁcent": 6612,
      "clergyman": 6613,
      "Hatherley": 6614,
      "Woolwich": 6615,
      "granite": 6616,
      "suicide": 6617,
      "Ralph": 6618,
      "100": 6619,
      "55": 6620,
      "Act": 6621,
      "Bed": 6622,
      "Band": 6623,
      "Cre": 6624,
      "Cour": 6625,
      "Case": 6626,
      "Day": 6627,
      "Dart": 6628,
      "Dark": 6629,
      "Dancing": 6630,
      "Devil": 6631,
      "End": 6632,
      "Green": 6633,
      "Hur": 6634,
      "Jac": 6635,
      "Little": 6636,
      "Mu": 6637,
      "Oc": 6638,
      "Ober": 6639,
      "Pond": 6640,
      "Pinker": 6641,
      "Ri": 6642,
      "Ry": 6643,
      "San": 6644,
      "Say": 6645,
      "Stain": 6646,
      "Tor": 6647,
      "Too": 6648,
      "Thur": 6649,
      "Treve": 6650,
      "Times": 6651,
      "Wes": 6652,
      "bone": 6653,
      "bending": 6654,
      "cow": 6655,
      "dk": 6656,
      "dain": 6657,
      "dings": 6658,
      "daily": 6659,
      "erect": 6660,
      "fren": 6661,
      "gust": 6662,
      "ians": 6663,
      "lust": 6664,
      "lake": 6665,
      "mire": 6666,
      "naked": 6667,
      "push": 6668,
      "pitch": 6669,
      "pane": 6670,
      "sher": 6671,
      "snu": 6672,
      "twe": 6673,
      "thathe": 6674,
      "vin": 6675,
      "wits": 6676,
      "rejo": 6677,
      "remove": 6678,
      "research": 6679,
      "edition": 6680,
      "asif": 6681,
      "encour": 6682,
      "enabled": 6683,
      "andI": 6684,
      "andso": 6685,
      "orable": 6686,
      "atlast": 6687,
      "argue": 6688,
      "leis": 6689,
      "seal": 6690,
      "youmust": 6691,
      "lyan": 6692,
      "chronic": 6693,
      "noone": 6694,
      "alight": 6695,
      "uten": 6696,
      "ribut": 6697,
      "accompl": 6698,
      "iring": 6699,
      "coast": 6700,
      "colored": 6701,
      "upset": 6702,
      "urance": 6703,
      "notion": 6704,
      "aber": 6705,
      "tips": 6706,
      "agrap": 6707,
      "moan": 6708,
      "motives": 6709,
      "feather": 6710,
      "fective": 6711,
      "deceased": 6712,
      "illed": 6713,
      "illness": 6714,
      "shud": 6715,
      "convol": 6716,
      "conspir": 6717,
      "shesaid": 6718,
      "wouldbe": 6719,
      "residence": 6720,
      "reserve": 6721,
      "iles": 6722,
      "caut": 6723,
      "acken": 6724,
      "plant": 6725,
      "icherry": 6726,
      "bluff": 6727,
      "proves": 6728,
      "protest": 6729,
      "brary": 6730,
      "brute": 6731,
      "clou": 6732,
      "clatter": 6733,
      "clums": 6734,
      "cametothe": 6735,
      "earned": 6736,
      "heren": 6737,
      "composed": 6738,
      "leted": 6739,
      "rue": 6740,
      "ressed": 6741,
      "distr": 6742,
      "States": 6743,
      "mature": 6744,
      "rester": 6745,
      "justiﬁed": 6746,
      "ﬁrmed": 6747,
      "merchant": 6748,
      "wardrobe": 6749,
      "precise": 6750,
      "brood": 6751,
      "curse": 6752,
      "preser": 6753,
      "pressure": 6754,
      "untilthey": 6755,
      "corners": 6756,
      "landing": 6757,
      "idently": 6758,
      "happiness": 6759,
      "solitary": 6760,
      "shocked": 6761,
      "paragrap": 6762,
      "fringe": 6763,
      "charged": 6764,
      "eccentric": 6765,
      "interfe": 6766,
      "steal": 6767,
      "steep": 6768,
      "triﬂe": 6769,
      "triﬂing": 6770,
      "personally": 6771,
      "valid": 6772,
      "bert": 6773,
      "girls": 6774,
      "senger": 6775,
      "sensitive": 6776,
      "answers": 6777,
      "consideration": 6778,
      "cutting": 6779,
      "views": 6780,
      "fasc": 6781,
      "Prince": 6782,
      "sixty": 6783,
      "troubles": 6784,
      "ﬁreplace": 6785,
      "impressions": 6786,
      "strict": 6787,
      "strikes": 6788,
      "eventually": 6789,
      "frighten": 6790,
      "connect": 6791,
      "objects": 6792,
      "covering": 6793,
      "constables": 6794,
      "Lee": 6795,
      "facul": 6796,
      "dreaming": 6797,
      "Anyhow": 6798,
      "spotted": 6799,
      "slightly": 6800,
      "slightest": 6801,
      "announced": 6802,
      "uttering": 6803,
      "magic": 6804,
      "dimen": 6805,
      "function": 6806,
      "delivered": 6807,
      "symptoms": 6808,
      "hurrying": 6809,
      "animals": 6810,
      "documents": 6811,
      "interruption": 6812,
      "rusted": 6813,
      "shrill": 6814,
      "complain": 6815,
      "cheerful": 6816,
      "recently": 6817,
      "----": 6818,
      "Jonas": 6819,
      "Should": 6820,
      "Upon": 6821,
      "intrusion": 6822,
      "Garridebs": 6823,
      "attracted": 6824,
      "VID": 6825,
      "crawled": 6826,
      "severely": 6827,
      "protection": 6828,
      "organization": 6829,
      "combination": 6830,
      "supply": 6831,
      "wolves": 6832,
      "convenient": 6833,
      "Keep": 6834,
      "securities": 6835,
      "abandon": 6836,
      "grateful": 6837,
      "Munchkins": 6838,
      "exhausted": 6839,
      "Plans": 6840,
      "twitching": 6841,
      "dollars": 6842,
      "Hayes": 6843,
      "Openshaw": 6844,
      "Palace": 6845,
      "reproach": 6846,
      "timidly": 6847,
      "figure": 6848,
      "spani": 6849,
      "exhibit": 6850,
      "perplex": 6851,
      "Cadogan": 6852,
      "NavalTreaty": 6853,
      "Circle": 6854,
      "chalk": 6855,
      "regiment": 6856,
      "major": 6857,
      "inexplicable": 6858,
      "Kindly": 6859,
      "psies": 6860,
      "Kensington": 6861,
      "Court": 6862,
      "Dartmoor": 6863,
      "Pondicherry": 6864,
      "Thurs": 6865,
      "Trevelyan": 6866,
      "clumsy": 6867,
      "paragraph": 6868,
      ",)": 6869,
      "41": 6870,
      "49": 6871,
      "82": 6872,
      "Cowardly": 6873,
      "Din": 6874,
      "Ear": 6875,
      "END": 6876,
      "EVID": 6877,
      "Hon": 6878,
      "IV": 6879,
      "Ihaven": 6880,
      "Lon": 6881,
      "Mont": 6882,
      "Mire": 6883,
      "Ob": 6884,
      "Ronder": 6885,
      "Sit": 6886,
      "Sold": 6887,
      "Seld": 6888,
      "Tw": 6889,
      "TUR": 6890,
      "US": 6891,
      "Wit": 6892,
      "^'": 6893,
      "ais": 6894,
      "aust": 6895,
      "battle": 6896,
      "cen": 6897,
      "cuse": 6898,
      "crew": 6899,
      "dawn": 6900,
      "emo": 6901,
      "equal": 6902,
      "fit": 6903,
      "fence": 6904,
      "fug": 6905,
      "fierce": 6906,
      "gard": 6907,
      "jar": 6908,
      "kick": 6909,
      "lain": 6910,
      "mic": 6911,
      "nical": 6912,
      "og": 6913,
      "pup": 6914,
      "panting": 6915,
      "rack": 6916,
      "ske": 6917,
      "tation": 6918,
      "tide": 6919,
      "text": 6920,
      "tured": 6921,
      "tangle": 6922,
      "tangled": 6923,
      "urious": 6924,
      "vindic": 6925,
      "wes": 6926,
      "hehad": 6927,
      "thegreat": 6928,
      "rea": 6929,
      "renew": 6930,
      "resem": 6931,
      "rella": 6932,
      "tome": 6933,
      "andit": 6934,
      "ofhis": 6935,
      "ofher": 6936,
      "mel": 6937,
      "sta": 6938,
      "stance": 6939,
      "stiff": 6940,
      "sees": 6941,
      "becoming": 6942,
      "hib": 6943,
      "hire": 6944,
      "rode": 6945,
      "root": 6946,
      "chor": 6947,
      "hishead": 6948,
      "versed": 6949,
      "alarmed": 6950,
      "sau": 6951,
      "sacri": 6952,
      "saving": 6953,
      "rive": 6954,
      "rival": 6955,
      "soil": 6956,
      "forn": 6957,
      "forces": 6958,
      "ional": 6959,
      "lift": 6960,
      "accent": 6961,
      "irth": 6962,
      "oogle": 6963,
      "etro": 6964,
      "tick": 6965,
      "amiss": 6966,
      "unra": 6967,
      "uncertain": 6968,
      "united": 6969,
      "sullen": 6970,
      "shorter": 6971,
      "trades": 6972,
      "Headed": 6973,
      "mpled": 6974,
      "indif": 6975,
      "ulary": 6976,
      "ults": 6977,
      "ulating": 6978,
      "couldsee": 6979,
      "theyhad": 6980,
      "plucked": 6981,
      "perceived": 6982,
      "shouldn": 6983,
      "proﬁ": 6984,
      "crim": 6985,
      "cript": 6986,
      "brushed": 6987,
      "intend": 6988,
      "clone": 6989,
      "clump": 6990,
      "abouts": 6991,
      "assurance": 6992,
      "prise": 6993,
      "gracious": 6994,
      "retained": 6995,
      "eyel": 6996,
      "backwards": 6997,
      "discoloured": 6998,
      "obtain": 6999,
      "smith": 7000,
      "angers": 7001,
      "thoughtful": 7002,
      "comput": 7003,
      "tells": 7004,
      "scare": 7005,
      "scrut": 7006,
      "wired": 7007,
      "merry": 7008,
      "miners": 7009,
      "menacing": 7010,
      "askedthe": 7011,
      "rights": 7012,
      "preprint": 7013,
      "stolen": 7014,
      "waving": 7015,
      "cuffs": 7016,
      "ladder": 7017,
      "surm": 7018,
      "surve": 7019,
      "effective": 7020,
      "lowed": 7021,
      "lowered": 7022,
      "evous": 7023,
      "satdown": 7024,
      "attent": 7025,
      "wanting": 7026,
      "awfully": 7027,
      "knuck": 7028,
      "answeredthe": 7029,
      "Toller": 7030,
      "markable": 7031,
      "incing": 7032,
      "fortnight": 7033,
      "crushed": 7034,
      "hurled": 7035,
      "Forrester": 7036,
      "chart": 7037,
      "Dorothywas": 7038,
      "ﬁnish": 7039,
      "Think": 7040,
      "independ": 7041,
      "control": 7042,
      "shield": 7043,
      "selﬁsh": 7044,
      "jected": 7045,
      "freed": 7046,
      "persons": 7047,
      "puff": 7048,
      "buzz": 7049,
      "duction": 7050,
      "strongest": 7051,
      "pense": 7052,
      "falls": 7053,
      "humor": 7054,
      "elsewhere": 7055,
      "aboard": 7056,
      "patches": 7057,
      "volun": 7058,
      "networks": 7059,
      "seconds": 7060,
      "crypt": 7061,
      "Excuse": 7062,
      "extended": 7063,
      "cushion": 7064,
      "dealing": 7065,
      "Percy": 7066,
      "paths": 7067,
      "Scandal": 7068,
      "feature": 7069,
      "Bracken": 7070,
      "gleamed": 7071,
      "investigating": 7072,
      "boarding": 7073,
      "eagerness": 7074,
      "twins": 7075,
      "confessed": 7076,
      "ﬁtted": 7077,
      "hounds": 7078,
      "Uni": 7079,
      "knocking": 7080,
      "sequences": 7081,
      "gency": 7082,
      "CHAPTERX": 7083,
      "Leave": 7084,
      "bounded": 7085,
      "hungry": 7086,
      "facing": 7087,
      "produce": 7088,
      "depths": 7089,
      "Already": 7090,
      "ﬁrmly": 7091,
      "peculiarly": 7092,
      "murderers": 7093,
      "strolled": 7094,
      "wandered": 7095,
      "specialist": 7096,
      "wickedWitch": 7097,
      "superior": 7098,
      "craft": 7099,
      "cravat": 7100,
      "Christ": 7101,
      "gleaming": 7102,
      "thusi": 7103,
      "peeping": 7104,
      "descend": 7105,
      "experiences": 7106,
      "communicated": 7107,
      "Edwards": 7108,
      "limits": 7109,
      "solemnly": 7110,
      "ENCE": 7111,
      "arrangements": 7112,
      "reconstruct": 7113,
      "balloon": 7114,
      "annoyed": 7115,
      "African": 7116,
      "drama": 7117,
      "lurking": 7118,
      "noiseless": 7119,
      "neatly": 7120,
      "monograph": 7121,
      "damned": 7122,
      "linen": 7123,
      "comfortably": 7124,
      "tiptoe": 7125,
      "expense": 7126,
      "clutched": 7127,
      "wheeler": 7128,
      "calmly": 7129,
      "Birdy": 7130,
      "draught": 7131,
      "monstrous": 7132,
      "nonsense": 7133,
      "vigil": 7134,
      "Shafter": 7135,
      "Guard": 7136,
      "obeyed": 7137,
      "ingenious": 7138,
      "conjecture": 7139,
      "projecting": 7140,
      "ruddy": 7141,
      "Porlock": 7142,
      "Speckled": 7143,
      "jealousy": 7144,
      "recurrent": 7145,
      "Merripit": 7146,
      "dignity": 7147,
      "nails": 7148,
      "Between": 7149,
      "guinea": 7150,
      "routine": 7151,
      "gigantic": 7152,
      "style": 7153,
      "indisc": 7154,
      "Devonshire": 7155,
      "tastes": 7156,
      "parallel": 7157,
      "Armstrong": 7158,
      "tremendous": 7159,
      "platform": 7160,
      "beautifully": 7161,
      "favorite": 7162,
      "ThroneRoom": 7163,
      "accomplice": 7164,
      "accompanied": 7165,
      "Acton": 7166,
      "Ryder": 7167,
      "dimension": 7168,
      "spaniel": 7169,
      "Dinah": 7170,
      "EVIDENCE": 7171,
      "emotions": 7172,
      "fugit": 7173,
      "59": 7174,
      "App": 7175,
      "Bring": 7176,
      "CO": 7177,
      "Cr": 7178,
      "Cli": 7179,
      "Card": 7180,
      "Der": 7181,
      "Eas": 7182,
      "Fort": 7183,
      "Frid": 7184,
      "Gener": 7185,
      "Im": 7186,
      "MO": 7187,
      "Map": 7188,
      "Maz": 7189,
      "OF": 7190,
      "Pince": 7191,
      "Ster": 7192,
      "Seven": 7193,
      "Tha": 7194,
      "Vio": 7195,
      "Wal": 7196,
      "bald": 7197,
      "border": 7198,
      "cate": 7199,
      "creas": 7200,
      "dus": 7201,
      "dated": 7202,
      "drank": 7203,
      "ea": 7204,
      "eve": 7205,
      "foo": 7206,
      "fess": 7207,
      "hush": 7208,
      "iment": 7209,
      "lou": 7210,
      "mush": 7211,
      "max": 7212,
      "nish": 7213,
      "pou": 7214,
      "pacing": 7215,
      "rous": 7216,
      "san": 7217,
      "slate": 7218,
      "tum": 7219,
      "vWIZARDOFOZ": 7220,
      "whar": 7221,
      "wig": 7222,
      "zard": 7223,
      "ﬂush": 7224,
      "hero": 7225,
      "iner": 7226,
      "income": 7227,
      "insol": 7228,
      "reign": 7229,
      "resolution": 7230,
      "hailed": 7231,
      "eding": 7232,
      "aspect": 7233,
      "assive": 7234,
      "toyou": 7235,
      "tothink": 7236,
      "enjoy": 7237,
      "enquired": 7238,
      "enthusi": 7239,
      "atre": 7240,
      "army": 7241,
      "ston": 7242,
      "sthat": 7243,
      "stack": 7244,
      "stated": 7245,
      "stamp": 7246,
      "thatshe": 7247,
      "christ": 7248,
      "hisaxe": 7249,
      "sall": 7250,
      "sallow": 7251,
      "ads": 7252,
      "sob": 7253,
      "livid": 7254,
      "irs": 7255,
      "code": 7256,
      "cope": 7257,
      "cocked": 7258,
      "ndale": 7259,
      "upward": 7260,
      "urgent": 7261,
      "hog": 7262,
      "areyou": 7263,
      "outlined": 7264,
      "neural": 7265,
      "mott": 7266,
      "dock": 7267,
      "unction": 7268,
      "unconscious": 7269,
      "messages": 7270,
      "messenger": 7271,
      "lore": 7272,
      "loaded": 7273,
      "convent": 7274,
      "contains": 7275,
      "consumed": 7276,
      "appre": 7277,
      "Itis": 7278,
      "cting": 7279,
      "ifyou": 7280,
      "ifying": 7281,
      "ils": 7282,
      "ilities": 7283,
      "induce": 7284,
      "cane": 7285,
      "theyall": 7286,
      "willbe": 7287,
      "pledge": 7288,
      "worry": 7289,
      "sized": 7290,
      "sizes": 7291,
      "perform": 7292,
      "perpet": 7293,
      "bodies": 7294,
      "artist": 7295,
      "ideas": 7296,
      "overtaken": 7297,
      "littlegirl": 7298,
      "pron": 7299,
      "grows": 7300,
      "backward": 7301,
      "letons": 7302,
      "cian": 7303,
      "ciently": 7304,
      "civil": 7305,
      "Andaman": 7306,
      "dismiss": 7307,
      "disregard": 7308,
      "longed": 7309,
      "State": 7310,
      "ventured": 7311,
      "wherethe": 7312,
      "remon": 7313,
      "comprom": 7314,
      "heading": 7315,
      "scal": 7316,
      "scap": 7317,
      "founded": 7318,
      "offended": 7319,
      "lesson": 7320,
      "lessons": 7321,
      "premature": 7322,
      "stopping": 7323,
      "counten": 7324,
      "guest": 7325,
      "hension": 7326,
      "efully": 7327,
      "calls": 7328,
      "Ask": 7329,
      "Adair": 7330,
      "Admir": 7331,
      "doubted": 7332,
      "pipes": 7333,
      "landed": 7334,
      "supposed": 7335,
      "suppressed": 7336,
      "strained": 7337,
      "Peters": 7338,
      "dering": 7339,
      "Ofﬁce": 7340,
      "awakened": 7341,
      "busi": 7342,
      "jewel": 7343,
      "gible": 7344,
      "paraly": 7345,
      "hearty": 7346,
      "fray": 7347,
      "singing": 7348,
      "breathe": 7349,
      "inscription": 7350,
      "Missing": 7351,
      "buck": 7352,
      "oftheW": 7353,
      "oftheEast": 7354,
      "ttes": 7355,
      "Murder": 7356,
      "direc": 7357,
      "paign": 7358,
      "erville": 7359,
      "subdu": 7360,
      "honoured": 7361,
      "Coronet": 7362,
      "sweep": 7363,
      "legend": 7364,
      "Box": 7365,
      "Yours": 7366,
      "yell": 7367,
      "yelled": 7368,
      "cats": 7369,
      "ilda": 7370,
      "armsand": 7371,
      "stricken": 7372,
      "Brown": 7373,
      "Quarter": 7374,
      "Reading": 7375,
      "frightful": 7376,
      "paint": 7377,
      "element": 7378,
      "judic": 7379,
      "conﬁdent": 7380,
      "Absolute": 7381,
      "remaining": 7382,
      "2014": 7383,
      "changes": 7384,
      "Strange": 7385,
      "hastened": 7386,
      "seaman": 7387,
      "palace": 7388,
      "portrait": 7389,
      "attacks": 7390,
      "packed": 7391,
      "instructive": 7392,
      "poisonous": 7393,
      "devote": 7394,
      "blinds": 7395,
      "wandering": 7396,
      "Merton": 7397,
      "moonlight": 7398,
      "Nez": 7399,
      "delicacy": 7400,
      "searching": 7401,
      "Marvin": 7402,
      "sleeves": 7403,
      "frankly": 7404,
      "cigarettes": 7405,
      "Post": 7406,
      "warmly": 7407,
      "peaceful": 7408,
      "authorities": 7409,
      "invited": 7410,
      "declare": 7411,
      "Presbury": 7412,
      "argued": 7413,
      "communicate": 7414,
      "accepted": 7415,
      "Step": 7416,
      "embed": 7417,
      "punishment": 7418,
      "speedily": 7419,
      "stooping": 7420,
      "columns": 7421,
      "bulky": 7422,
      "operation": 7423,
      "operations": 7424,
      "vacant": 7425,
      "suffer": 7426,
      "Camber": 7427,
      "twinkle": 7428,
      "convulsive": 7429,
      "stuffedwith": 7430,
      "rules": 7431,
      "abandoned": 7432,
      "Club": 7433,
      "infernal": 7434,
      "stirring": 7435,
      "Holdhurst": 7436,
      "Sergeant": 7437,
      "assault": 7438,
      "appreciate": 7439,
      "issue": 7440,
      "bristling": 7441,
      "execution": 7442,
      "Augustus": 7443,
      "disappointed": 7444,
      "presumably": 7445,
      "Builder": 7446,
      "inhabited": 7447,
      "Russian": 7448,
      "dreary": 7449,
      "adopted": 7450,
      "neglected": 7451,
      "diffic": 7452,
      "electric": 7453,
      "politics": 7454,
      "Secretary": 7455,
      "Woking": 7456,
      "Gardens": 7457,
      "Victoria": 7458,
      "Gilchrist": 7459,
      "inthemid": 7460,
      "ventilator": 7461,
      "Leonardo": 7462,
      "Pinkerton": 7463,
      "tweed": 7464,
      "leisure": 7465,
      "CowardlyLion": 7466,
      "fornia": 7467,
      "knuckles": 7468,
      "volunte": 7469,
      "Brackenstall": 7470,
      "Guardian": 7471,
      "Client": 7472,
      "Friday": 7473,
      "Sterndale": 7474,
      "Violet": 7475,
      "mottled": 7476,
      "33": 7477,
      "48": 7478,
      "57": 7479,
      "66": 7480,
      "Abo": 7481,
      "Burn": 7482,
      "Daily": 7483,
      "Eld": 7484,
      "Fe": 7485,
      "Fire": 7486,
      "Grun": 7487,
      "Hender": 7488,
      "Ican": 7489,
      "Icould": 7490,
      "Je": 7491,
      "June": 7492,
      "Las": 7493,
      "Lily": 7494,
      "Lower": 7495,
      "Mun": 7496,
      "Mount": 7497,
      "Maber": 7498,
      "OO": 7499,
      "Phi": 7500,
      "Pinner": 7501,
      "Sp": 7502,
      "Soup": 7503,
      "Tong": 7504,
      "TTLE": 7505,
      "UND": 7506,
      "Vampi": 7507,
      "^-": 7508,
      "ba": 7509,
      "birth": 7510,
      "cation": 7511,
      "cable": 7512,
      "coward": 7513,
      "darling": 7514,
      "dmodel": 7515,
      "dashing": 7516,
      "dangers": 7517,
      "eleg": 7518,
      "fi": 7519,
      "gal": 7520,
      "gay": 7521,
      "gins": 7522,
      "ili": 7523,
      "iard": 7524,
      "ires": 7525,
      "ially": 7526,
      "jagged": 7527,
      "lvi": 7528,
      "lashed": 7529,
      "poo": 7530,
      "rs": 7531,
      "rating": 7532,
      "rabbit": 7533,
      "swell": 7534,
      "twin": 7535,
      "tapping": 7536,
      "uced": 7537,
      "vast": 7538,
      "wings": 7539,
      "yaw": 7540,
      "yield": 7541,
      "—‘": 7542,
      "ﬂaw": 7543,
      "ﬂashed": 7544,
      "theroad": 7545,
      "inhis": 7546,
      "inet": 7547,
      "invalid": 7548,
      "rever": 7549,
      "retic": 7550,
      "onward": 7551,
      "isit": 7552,
      "assoon": 7553,
      "iting": 7554,
      "tohis": 7555,
      "togo": 7556,
      "tokeep": 7557,
      "andher": 7558,
      "ofor": 7559,
      "arin": 7560,
      "arrow": 7561,
      "arose": 7562,
      "threet": 7563,
      "seur": 7564,
      "owl": 7565,
      "begg": 7566,
      "thatis": 7567,
      "ids": 7568,
      "chances": 7569,
      "wealthy": 7570,
      "ghost": 7571,
      "soshe": 7572,
      "social": 7573,
      "forit": 7574,
      "forwards": 7575,
      "allusion": 7576,
      "acti": 7577,
      "acher": 7578,
      "actor": 7579,
      "acute": 7580,
      "coheren": 7581,
      "hobby": 7582,
      "outstretched": 7583,
      "moss": 7584,
      "device": 7585,
      "deceive": 7586,
      "demonstr": 7587,
      "amford": 7588,
      "olate": 7589,
      "doc": 7590,
      "doings": 7591,
      "dogged": 7592,
      "poon": 7593,
      "peg": 7594,
      "pel": 7595,
      "peo": 7596,
      "sud": 7597,
      "shrew": 7598,
      "tran": 7599,
      "lob": 7600,
      "connois": 7601,
      "containing": 7602,
      "whenever": 7603,
      "exit": 7604,
      "exal": 7605,
      "exchanged": 7606,
      "reserved": 7607,
      "inder": 7608,
      "plained": 7609,
      "worried": 7610,
      "sic": 7611,
      "siah": 7612,
      "perfor": 7613,
      "perman": 7614,
      "permit": 7615,
      "bosom": 7616,
      "Butthe": 7617,
      "aft": 7618,
      "blowing": 7619,
      "glist": 7620,
      "glaring": 7621,
      "glances": 7622,
      "Therewas": 7623,
      "princess": 7624,
      "shaped": 7625,
      "backed": 7626,
      "backtothe": 7627,
      "lets": 7628,
      "vessel": 7629,
      "disposal": 7630,
      "ineer": 7631,
      "Stamford": 7632,
      "mates": 7633,
      "mufﬂed": 7634,
      "compet": 7635,
      "compare": 7636,
      "compared": 7637,
      "completed": 7638,
      "specially": 7639,
      "scound": 7640,
      "scram": 7641,
      "scuf": 7642,
      "laure": 7643,
      "justify": 7644,
      "mines": 7645,
      "minster": 7646,
      "offensive": 7647,
      "impor": 7648,
      "impassive": 7649,
      "athle": 7650,
      "dip": 7651,
      "diary": 7652,
      "stool": 7653,
      "wrapped": 7654,
      "wrinkled": 7655,
      "gger": 7656,
      "preserved": 7657,
      "preserve": 7658,
      "attened": 7659,
      "settling": 7660,
      "minded": 7661,
      "waters": 7662,
      "stride": 7663,
      "horiz": 7664,
      "darker": 7665,
      "darkened": 7666,
      "strangest": 7667,
      "happily": 7668,
      "parce": 7669,
      "itioner": 7670,
      "largest": 7671,
      "reasoner": 7672,
      "Josiah": 7673,
      "insisted": 7674,
      "Alley": 7675,
      "latest": 7676,
      "drops": 7677,
      "fectly": 7678,
      "dripping": 7679,
      "drifted": 7680,
      "commit": 7681,
      "trim": 7682,
      "Dodo": 7683,
      "capacity": 7684,
      "swinging": 7685,
      "!\"\"": 7686,
      "trains": 7687,
      "boxes": 7688,
      "purple": 7689,
      "quee": 7690,
      "quarre": 7691,
      "blooded": 7692,
      "recovering": 7693,
      "cyclist": 7694,
      "sunshine": 7695,
      "faster": 7696,
      "confusion": 7697,
      "midst": 7698,
      "furtive": 7699,
      "numbers": 7700,
      "applied": 7701,
      "madness": 7702,
      "bigger": 7703,
      "Quad": 7704,
      "Regent": 7705,
      "taller": 7706,
      "characters": 7707,
      "conceive": 7708,
      "Union": 7709,
      "Stapletons": 7710,
      "banks": 7711,
      "crumpled": 7712,
      "prisoners": 7713,
      "gait": 7714,
      "couch": 7715,
      "Capital": 7716,
      "Looking": 7717,
      "dreamed": 7718,
      "foolscap": 7719,
      "bully": 7720,
      "magistr": 7721,
      "deduced": 7722,
      "velvet": 7723,
      "eighteen": 7724,
      "nesday": 7725,
      "inﬂicted": 7726,
      "college": 7727,
      "origin": 7728,
      "poisoned": 7729,
      "Lip": 7730,
      "salary": 7731,
      "crazy": 7732,
      "pistols": 7733,
      "occupation": 7734,
      "jumping": 7735,
      "impatient": 7736,
      "establish": 7737,
      "endeavouring": 7738,
      "students": 7739,
      "personality": 7740,
      "measured": 7741,
      "deeds": 7742,
      "Police": 7743,
      "Prime": 7744,
      "tossing": 7745,
      "experienced": 7746,
      "sailors": 7747,
      "purely": 7748,
      "slope": 7749,
      "triumphant": 7750,
      "Horner": 7751,
      "LITTLE": 7752,
      "horriﬁed": 7753,
      "crawling": 7754,
      "Alex": 7755,
      "claws": 7756,
      "swimming": 7757,
      "commissionaire": 7758,
      "sporting": 7759,
      "convulsed": 7760,
      "shrieked": 7761,
      "scratch": 7762,
      "crisp": 7763,
      "summoned": 7764,
      "Birming": 7765,
      "clasped": 7766,
      "Sylvi": 7767,
      "tightly": 7768,
      "ignorant": 7769,
      "THEWONDERFUIvWIZARDOFOZ": 7770,
      "receiving": 7771,
      "education": 7772,
      "sketch": 7773,
      "Disappearance": 7774,
      "ejaculated": 7775,
      "Sahib": 7776,
      "Elsie": 7777,
      "abruptly": 7778,
      "acknowledge": 7779,
      "drooping": 7780,
      "Illustrious": 7781,
      "Martin": 7782,
      "fronted": 7783,
      "surroundings": 7784,
      "episode": 7785,
      "Wednesday": 7786,
      "anticip": 7787,
      "malignant": 7788,
      "Oberstein": 7789,
      "clouded": 7790,
      "interfere": 7791,
      "Thursday": 7792,
      "Selden": 7793,
      "Twisted": 7794,
      "crimson": 7795,
      "Derby": 7796,
      "Mazarin": 7797,
      "Thames": 7798,
      "louder": 7799,
      "countenance": 7800,
      "Camberwell": 7801,
      "Above": 7802,
      "Gruner": 7803,
      "Henderson": 7804,
      "Tonga": 7805,
      "threetimes": 7806,
      "shrewd": 7807,
      "Sylvius": 7808,
      "6THEWONDERFULWIZARDOFOZ": 7809,
      "79": 7810,
      "?—": 7811,
      "Ac": 7812,
      "Ach": 7813,
      "Ball": 7814,
      "Bac": 7815,
      "Bep": 7816,
      "Bel": 7817,
      "Bank": 7818,
      "Cri": 7819,
      "Cast": 7820,
      "Clear": 7821,
      "Det": 7822,
      "Dodd": 7823,
      "Fair": 7824,
      "Gra": 7825,
      "GRO": 7826,
      "Gorgi": 7827,
      "Hence": 7828,
      "Harker": 7829,
      "Hilda": 7830,
      "Ihad": 7831,
      "Ithought": 7832,
      "Jan": 7833,
      "Law": 7834,
      "Master": 7835,
      "Merville": 7836,
      "Night": 7837,
      "Pen": 7838,
      "RY": 7839,
      "Sw": 7840,
      "Sil": 7841,
      "Stor": 7842,
      "TA": 7843,
      "Tr": 7844,
      "Ten": 7845,
      "Table": 7846,
      "TKe": 7847,
      "Whe": 7848,
      "Wig": 7849,
      "aim": 7850,
      "bable": 7851,
      "bitten": 7852,
      "cough": 7853,
      "cence": 7854,
      "dad": 7855,
      "ditch": 7856,
      "filled": 7857,
      "gion": 7858,
      "gage": 7859,
      "iece": 7860,
      "lack": 7861,
      "mare": 7862,
      "nib": 7863,
      "ore": 7864,
      "py": 7865,
      "rass": 7866,
      "sink": 7867,
      "sought": 7868,
      "tted": 7869,
      "taught": 7870,
      "vul": 7871,
      "wright": 7872,
      "wreck": 7873,
      "ys": 7874,
      "zroy": 7875,
      "healthy": 7876,
      "theother": 7877,
      "thesame": 7878,
      "inex": 7879,
      "inward": 7880,
      "inconceivable": 7881,
      "inferences": 7882,
      "relic": 7883,
      "reaction": 7884,
      "haul": 7885,
      "isive": 7886,
      "astr": 7887,
      "asant": 7888,
      "ites": 7889,
      "tothem": 7890,
      "token": 7891,
      "enable": 7892,
      "andwas": 7893,
      "andall": 7894,
      "orary": 7895,
      "attain": 7896,
      "tho": 7897,
      "thres": 7898,
      "thie": 7899,
      "stump": 7900,
      "sev": 7901,
      "seed": 7902,
      "seize": 7903,
      "season": 7904,
      "select": 7905,
      "thatthey": 7906,
      "wasso": 7907,
      "rot": 7908,
      "verdict": 7909,
      "alas": 7910,
      "altern": 7911,
      "safer": 7912,
      "rip": 7913,
      "riﬂe": 7914,
      "richest": 7915,
      "ada": 7916,
      "sobbing": 7917,
      "foryou": 7918,
      "ithing": 7919,
      "withdraw": 7920,
      "lithe": 7921,
      "library": 7922,
      "alled": 7923,
      "allic": 7924,
      "upwards": 7925,
      "oneofthe": 7926,
      "ette": 7927,
      "manus": 7928,
      "manners": 7929,
      "outr": 7930,
      "neath": 7931,
      "tiﬁc": 7932,
      "agency": 7933,
      "moist": 7934,
      "modest": 7935,
      "molest": 7936,
      "moirs": 7937,
      "decent": 7938,
      "amate": 7939,
      "ample": 7940,
      "dod": 7941,
      "uncomfortable": 7942,
      "peered": 7943,
      "butt": 7944,
      "cker": 7945,
      "tram": 7946,
      "truck": 7947,
      "losing": 7948,
      "conj": 7949,
      "constru": 7950,
      "consequence": 7951,
      "Hel": 7952,
      "quive": 7953,
      "uponher": 7954,
      "somebody": 7955,
      "astro": 7956,
      "astute": 7957,
      "causes": 7958,
      "aks": 7959,
      "foreseen": 7960,
      "handling": 7961,
      "ryweather": 7962,
      "bler": 7963,
      "blance": 7964,
      "blunder": 7965,
      "glow": 7966,
      "glint": 7967,
      "propri": 7968,
      "proposition": 7969,
      "proﬁt": 7970,
      "oppon": 7971,
      "Theresa": 7972,
      "istan": 7973,
      "brush": 7974,
      "clang": 7975,
      "clung": 7976,
      "beforethem": 7977,
      "Instead": 7978,
      "Noble": 7979,
      "letting": 7980,
      "orton": 7981,
      "rugged": 7982,
      "distorted": 7983,
      "vio": 7984,
      "Wells": 7985,
      "wherever": 7986,
      "impert": 7987,
      "winds": 7988,
      "lessly": 7989,
      "courte": 7990,
      "throughout": 7991,
      "Sothey": 7992,
      "Yesterday": 7993,
      "broker": 7994,
      "despatch": 7995,
      "wrists": 7996,
      "lads": 7997,
      "tinge": 7998,
      "lowly": 7999
    },
    "merges": [
      [
        "h",
        "e"
      ],
      [
        "t",
        "he"
      ],
      [
        "i",
        "n"
      ],
      [
        "a",
        "n"
      ],
      [
        "r",
        "e"
      ],
      [
        "o",
        "u"
      ],
      [
        "h",
        "a"
      ],
      [
        "o",
        "n"
      ],
      [
        "e",
        "r"
      ],
      [
        "i",
        "s"
      ],
      [
        "e",
        "d"
      ],
      [
        "a",
        "s"
      ],
      [
        "i",
        "t"
      ],
      [
        "t",
        "o"
      ],
      [
        "e",
        "n"
      ],
      [
        "an",
        "d"
      ],
      [
        "o",
        "f"
      ],
      [
        "o",
        "r"
      ],
      [
        "in",
        "g"
      ],
      [
        "e",
        "s"
      ],
      [
        "a",
        "t"
      ],
      [
        "l",
        "l"
      ],
      [
        "a",
        "r"
      ],
      [
        "ha",
        "t"
      ],
      [
        "t",
        "h"
      ],
      [
        "m",
        "e"
      ],
      [
        "s",
        "t"
      ],
      [
        "l",
        "e"
      ],
      [
        "s",
        "e"
      ],
      [
        "o",
        "w"
      ],
      [
        "b",
        "e"
      ],
      [
        "y",
        "ou"
      ],
      [
        "t",
        "hat"
      ],
      [
        "v",
        "e"
      ],
      [
        "w",
        "as"
      ],
      [
        "h",
        "i"
      ],
      [
        "l",
        "d"
      ],
      [
        "i",
        "d"
      ],
      [
        "r",
        "o"
      ],
      [
        "l",
        "y"
      ],
      [
        "c",
        "e"
      ],
      [
        "c",
        "h"
      ],
      [
        "w",
        "e"
      ],
      [
        "h",
        "is"
      ],
      [
        "n",
        "o"
      ],
      [
        "g",
        "h"
      ],
      [
        "v",
        "er"
      ],
      [
        "a",
        "l"
      ],
      [
        "u",
        "t"
      ],
      [
        "en",
        "t"
      ],
      [
        "s",
        "a"
      ],
      [
        "r",
        "i"
      ],
      [
        "a",
        "d"
      ],
      [
        "s",
        "o"
      ],
      [
        "ha",
        "d"
      ],
      [
        "T",
        "he"
      ],
      [
        "f",
        "or"
      ],
      [
        "it",
        "h"
      ],
      [
        ".",
        "”"
      ],
      [
        "i",
        "on"
      ],
      [
        "w",
        "ith"
      ],
      [
        "ou",
        "ld"
      ],
      [
        "a",
        "y"
      ],
      [
        "l",
        "i"
      ],
      [
        "a",
        "ll"
      ],
      [
        "a",
        "c"
      ],
      [
        "t",
        "er"
      ],
      [
        "m",
        "y"
      ],
      [
        "gh",
        "t"
      ],
      [
        "ha",
        "ve"
      ],
      [
        "i",
        "r"
      ],
      [
        "c",
        "o"
      ],
      [
        "n",
        "d"
      ],
      [
        "u",
        "p"
      ],
      [
        "u",
        "r"
      ],
      [
        "o",
        "o"
      ],
      [
        "on",
        "e"
      ],
      [
        "no",
        "t"
      ],
      [
        "w",
        "hi"
      ],
      [
        "e",
        "t"
      ],
      [
        "h",
        "o"
      ],
      [
        "a",
        "b"
      ],
      [
        "m",
        "an"
      ],
      [
        "u",
        "s"
      ],
      [
        "a",
        "re"
      ],
      [
        "ou",
        "t"
      ],
      [
        "n",
        "e"
      ],
      [
        "t",
        "i"
      ],
      [
        "whi",
        "ch"
      ],
      [
        "hi",
        "m"
      ],
      [
        "a",
        "g"
      ],
      [
        "m",
        "o"
      ],
      [
        "k",
        "e"
      ],
      [
        "sa",
        "id"
      ],
      [
        "the",
        "r"
      ],
      [
        "a",
        "in"
      ],
      [
        "f",
        "e"
      ],
      [
        "d",
        "e"
      ],
      [
        "a",
        "m"
      ],
      [
        "o",
        "l"
      ],
      [
        "ou",
        "r"
      ],
      [
        "he",
        "r"
      ],
      [
        "d",
        "o"
      ],
      [
        "p",
        "o"
      ],
      [
        "i",
        "ll"
      ],
      [
        "u",
        "n"
      ],
      [
        "m",
        "es"
      ],
      [
        "p",
        "e"
      ],
      [
        "b",
        "ut"
      ],
      [
        "?",
        "”"
      ],
      [
        "c",
        "k"
      ],
      [
        "ro",
        "m"
      ],
      [
        "th",
        "is"
      ],
      [
        "s",
        "u"
      ],
      [
        "s",
        "h"
      ],
      [
        "re",
        "d"
      ],
      [
        ",",
        "”"
      ],
      [
        "t",
        "r"
      ],
      [
        "l",
        "o"
      ],
      [
        "c",
        "on"
      ],
      [
        "ow",
        "n"
      ],
      [
        "a",
        "p"
      ],
      [
        "I",
        "t"
      ],
      [
        "H",
        "e"
      ],
      [
        "s",
        "he"
      ],
      [
        "f",
        "rom"
      ],
      [
        "H",
        "ol"
      ],
      [
        "Hol",
        "mes"
      ],
      [
        "w",
        "he"
      ],
      [
        "ver",
        "y"
      ],
      [
        "e",
        "x"
      ],
      [
        "t",
        "e"
      ],
      [
        "n",
        "ow"
      ],
      [
        "we",
        "re"
      ],
      [
        "es",
        "s"
      ],
      [
        "g",
        "e"
      ],
      [
        "q",
        "u"
      ],
      [
        "en",
        "d"
      ],
      [
        "c",
        "t"
      ],
      [
        "m",
        "p"
      ],
      [
        "up",
        "on"
      ],
      [
        "ar",
        "d"
      ],
      [
        "b",
        "y"
      ],
      [
        "so",
        "me"
      ],
      [
        "th",
        "ing"
      ],
      [
        "w",
        "ho"
      ],
      [
        "u",
        "st"
      ],
      [
        "be",
        "en"
      ],
      [
        "the",
        "re"
      ],
      [
        "ou",
        "nd"
      ],
      [
        "w",
        "ould"
      ],
      [
        "you",
        "r"
      ],
      [
        "i",
        "ght"
      ],
      [
        "i",
        "f"
      ],
      [
        "re",
        "s"
      ],
      [
        "se",
        "e"
      ],
      [
        "i",
        "l"
      ],
      [
        "w",
        "ay"
      ],
      [
        "in",
        "d"
      ],
      [
        "oo",
        "k"
      ],
      [
        "f",
        "o"
      ],
      [
        "u",
        "l"
      ],
      [
        "c",
        "an"
      ],
      [
        "c",
        "ould"
      ],
      [
        "f",
        "a"
      ],
      [
        "as",
        "t"
      ],
      [
        "c",
        "a"
      ],
      [
        "M",
        "r"
      ],
      [
        "ou",
        "s"
      ],
      [
        "the",
        "y"
      ],
      [
        "ac",
        "k"
      ],
      [
        "r",
        "a"
      ],
      [
        "l",
        "f"
      ],
      [
        "an",
        "t"
      ],
      [
        "es",
        "t"
      ],
      [
        "W",
        "e"
      ],
      [
        "w",
        "ill"
      ],
      [
        "p",
        "l"
      ],
      [
        "s",
        "on"
      ],
      [
        "at",
        "e"
      ],
      [
        "the",
        "m"
      ],
      [
        "g",
        "o"
      ],
      [
        "on",
        "g"
      ],
      [
        "at",
        "ion"
      ],
      [
        "Y",
        "ou"
      ],
      [
        "w",
        "or"
      ],
      [
        "it",
        "t"
      ],
      [
        "oo",
        "d"
      ],
      [
        "s",
        "i"
      ],
      [
        "w",
        "hat"
      ],
      [
        "whe",
        "n"
      ],
      [
        "w",
        "o"
      ],
      [
        "m",
        "ent"
      ],
      [
        "ha",
        "s"
      ],
      [
        "a",
        "k"
      ],
      [
        "ou",
        "gh"
      ],
      [
        "u",
        "re"
      ],
      [
        "p",
        "er"
      ],
      [
        "an",
        "y"
      ],
      [
        "b",
        "o"
      ],
      [
        "ab",
        "le"
      ],
      [
        "he",
        "d"
      ],
      [
        "in",
        "to"
      ],
      [
        "fo",
        "re"
      ],
      [
        "se",
        "lf"
      ],
      [
        "h",
        "and"
      ],
      [
        "in",
        "k"
      ],
      [
        "ar",
        "t"
      ],
      [
        "v",
        "en"
      ],
      [
        "id",
        "e"
      ],
      [
        "i",
        "c"
      ],
      [
        "ar",
        "k"
      ],
      [
        "o",
        "ther"
      ],
      [
        "o",
        "m"
      ],
      [
        "sh",
        "ould"
      ],
      [
        "k",
        "now"
      ],
      [
        "to",
        "o"
      ],
      [
        "r",
        "y"
      ],
      [
        "B",
        "ut"
      ],
      [
        "d",
        "own"
      ],
      [
        "a",
        "f"
      ],
      [
        "b",
        "l"
      ],
      [
        "mo",
        "re"
      ],
      [
        "ha",
        "r"
      ],
      [
        "g",
        "l"
      ],
      [
        "o",
        "ver"
      ],
      [
        "er",
        "s"
      ],
      [
        "e",
        "p"
      ],
      [
        "p",
        "ro"
      ],
      [
        "ur",
        "n"
      ],
      [
        "e",
        "ver"
      ],
      [
        "b",
        "le"
      ],
      [
        "a",
        "ke"
      ],
      [
        "h",
        "ow"
      ],
      [
        "o",
        "p"
      ],
      [
        "r",
        "an"
      ],
      [
        "The",
        "re"
      ],
      [
        "as",
        "k"
      ],
      [
        "it",
        "e"
      ],
      [
        "c",
        "ri"
      ],
      [
        "ro",
        "om"
      ],
      [
        "l",
        "ook"
      ],
      [
        "is",
        "t"
      ],
      [
        "itt",
        "le"
      ],
      [
        "l",
        "ittle"
      ],
      [
        "ou",
        "ght"
      ],
      [
        "b",
        "r"
      ],
      [
        "in",
        "t"
      ],
      [
        "c",
        "l"
      ],
      [
        "the",
        "n"
      ],
      [
        "re",
        "at"
      ],
      [
        "ab",
        "out"
      ],
      [
        "v",
        "ed"
      ],
      [
        "!",
        "”"
      ],
      [
        "co",
        "me"
      ],
      [
        "ti",
        "me"
      ],
      [
        "d",
        "ay"
      ],
      [
        "ou",
        "se"
      ],
      [
        "i",
        "g"
      ],
      [
        "en",
        "ce"
      ],
      [
        "as",
        "s"
      ],
      [
        "ca",
        "me"
      ],
      [
        "ac",
        "t"
      ],
      [
        "p",
        "r"
      ],
      [
        "d",
        "id"
      ],
      [
        "ad",
        "e"
      ],
      [
        "m",
        "ay"
      ],
      [
        "g",
        "r"
      ],
      [
        "on",
        "ly"
      ],
      [
        ".",
        "\""
      ],
      [
        "u",
        "nd"
      ],
      [
        "e",
        "ar"
      ],
      [
        "s",
        "ha"
      ],
      [
        "re",
        "t"
      ],
      [
        "po",
        "s"
      ],
      [
        "be",
        "fore"
      ],
      [
        "e",
        "y"
      ],
      [
        ",",
        "\""
      ],
      [
        "th",
        "ink"
      ],
      [
        "e",
        "l"
      ],
      [
        "m",
        "ed"
      ],
      [
        "he",
        "re"
      ],
      [
        "an",
        "ce"
      ],
      [
        "ag",
        "ain"
      ],
      [
        "fa",
        "ce"
      ],
      [
        "b",
        "ack"
      ],
      [
        "co",
        "m"
      ],
      [
        "re",
        "ad"
      ],
      [
        "I",
        "n"
      ],
      [
        "m",
        "ust"
      ],
      [
        "th",
        "an"
      ],
      [
        "the",
        "ir"
      ],
      [
        "N",
        "o"
      ],
      [
        "i",
        "ve"
      ],
      [
        "all",
        "y"
      ],
      [
        "c",
        "as"
      ],
      [
        "an",
        "s"
      ],
      [
        "li",
        "ke"
      ],
      [
        "W",
        "at"
      ],
      [
        "le",
        "t"
      ],
      [
        "or",
        "t"
      ],
      [
        "ag",
        "e"
      ],
      [
        "a",
        "ve"
      ],
      [
        "W",
        "hat"
      ],
      [
        "c",
        "i"
      ],
      [
        "r",
        "u"
      ],
      [
        "t",
        "wo"
      ],
      [
        "sa",
        "y"
      ],
      [
        "A",
        "nd"
      ],
      [
        "u",
        "ll"
      ],
      [
        "res",
        "s"
      ],
      [
        "h",
        "ouse"
      ],
      [
        "c",
        "le"
      ],
      [
        "n",
        "ight"
      ],
      [
        "Wat",
        "son"
      ],
      [
        "n",
        "ing"
      ],
      [
        "v",
        "es"
      ],
      [
        "i",
        "m"
      ],
      [
        "g",
        "et"
      ],
      [
        "on",
        "d"
      ],
      [
        "d",
        "is"
      ],
      [
        "t",
        "ain"
      ],
      [
        "v",
        "i"
      ],
      [
        "in",
        "e"
      ],
      [
        "l",
        "ong"
      ],
      [
        "ll",
        "ow"
      ],
      [
        "f",
        "ri"
      ],
      [
        "ou",
        "n"
      ],
      [
        "re",
        "e"
      ],
      [
        "th",
        "r"
      ],
      [
        "u",
        "e"
      ],
      [
        "o",
        "b"
      ],
      [
        "we",
        "ll"
      ],
      [
        "l",
        "ed"
      ],
      [
        "do",
        "or"
      ],
      [
        "af",
        "ter"
      ],
      [
        "t",
        "y"
      ],
      [
        "We",
        "ll"
      ],
      [
        "s",
        "er"
      ],
      [
        "it",
        "y"
      ],
      [
        "S",
        "t"
      ],
      [
        "m",
        "at"
      ],
      [
        "v",
        "ent"
      ],
      [
        "s",
        "m"
      ],
      [
        "o",
        "ld"
      ],
      [
        "ne",
        "w"
      ],
      [
        "m",
        "or"
      ],
      [
        "p",
        "p"
      ],
      [
        "s",
        "ide"
      ],
      [
        "whe",
        "re"
      ],
      [
        "an",
        "g"
      ],
      [
        "ne",
        "ver"
      ],
      [
        "m",
        "u"
      ],
      [
        "re",
        "m"
      ],
      [
        "th",
        "ought"
      ],
      [
        "h",
        "y"
      ],
      [
        "is",
        "h"
      ],
      [
        "s",
        "p"
      ],
      [
        "li",
        "ght"
      ],
      [
        "co",
        "mp"
      ],
      [
        "l",
        "ast"
      ],
      [
        "m",
        "b"
      ],
      [
        "u",
        "se"
      ],
      [
        "T",
        "hat"
      ],
      [
        "The",
        "n"
      ],
      [
        "mo",
        "st"
      ],
      [
        "te",
        "ll"
      ],
      [
        "he",
        "ad"
      ],
      [
        "s",
        "pe"
      ],
      [
        "s",
        "c"
      ],
      [
        "l",
        "a"
      ],
      [
        "en",
        "ed"
      ],
      [
        "re",
        "st"
      ],
      [
        "lo",
        "ck"
      ],
      [
        "g",
        "ood"
      ],
      [
        "w",
        "i"
      ],
      [
        "m",
        "ade"
      ],
      [
        "f",
        "t"
      ],
      [
        "li",
        "ce"
      ],
      [
        "j",
        "ust"
      ],
      [
        "to",
        "r"
      ],
      [
        "v",
        "ing"
      ],
      [
        "f",
        "ound"
      ],
      [
        "n",
        "g"
      ],
      [
        "a",
        "ce"
      ],
      [
        "u",
        "d"
      ],
      [
        "ﬁ",
        "r"
      ],
      [
        "fri",
        "end"
      ],
      [
        "m",
        "er"
      ],
      [
        "it",
        "s"
      ],
      [
        "m",
        "ight"
      ],
      [
        "al",
        "k"
      ],
      [
        "su",
        "ch"
      ],
      [
        "f",
        "ul"
      ],
      [
        "is",
        "e"
      ],
      [
        "cas",
        "e"
      ],
      [
        "S",
        "he"
      ],
      [
        "m",
        "in"
      ],
      [
        "t",
        "urn"
      ],
      [
        "w",
        "ard"
      ],
      [
        "mu",
        "ch"
      ],
      [
        "ar",
        "y"
      ],
      [
        "of",
        "f"
      ],
      [
        "or",
        "d"
      ],
      [
        "sha",
        "ll"
      ],
      [
        "und",
        "er"
      ],
      [
        "e",
        "ven"
      ],
      [
        "i",
        "mp"
      ],
      [
        "w",
        "ind"
      ],
      [
        "i",
        "ck"
      ],
      [
        "s",
        "s"
      ],
      [
        "ey",
        "es"
      ],
      [
        "t",
        "ed"
      ],
      [
        "l",
        "ess"
      ],
      [
        "n",
        "er"
      ],
      [
        "no",
        "thing"
      ],
      [
        "c",
        "er"
      ],
      [
        "p",
        "ut"
      ],
      [
        "at",
        "h"
      ],
      [
        "g",
        "reat"
      ],
      [
        "e",
        "very"
      ],
      [
        "sa",
        "w"
      ],
      [
        "a",
        "ch"
      ],
      [
        "c",
        "he"
      ],
      [
        "d",
        "i"
      ],
      [
        "p",
        "s"
      ],
      [
        "m",
        "en"
      ],
      [
        "are",
        "d"
      ],
      [
        "I",
        "f"
      ],
      [
        "a",
        "way"
      ],
      [
        "r",
        "ow"
      ],
      [
        "he",
        "ard"
      ],
      [
        "ask",
        "ed"
      ],
      [
        "c",
        "our"
      ],
      [
        "be",
        "t"
      ],
      [
        "ri",
        "ght"
      ],
      [
        "thr",
        "ough"
      ],
      [
        "c",
        "ar"
      ],
      [
        "cri",
        "ed"
      ],
      [
        "a",
        "me"
      ],
      [
        "p",
        "re"
      ],
      [
        "r",
        "ound"
      ],
      [
        "s",
        "ir"
      ],
      [
        "c",
        "ha"
      ],
      [
        "mat",
        "ter"
      ],
      [
        "ﬁr",
        "st"
      ],
      [
        "po",
        "int"
      ],
      [
        "ri",
        "ed"
      ],
      [
        "at",
        "ed"
      ],
      [
        "le",
        "ft"
      ],
      [
        "wor",
        "d"
      ],
      [
        "on",
        "ce"
      ],
      [
        "is",
        "s"
      ],
      [
        "ct",
        "ion"
      ],
      [
        "a",
        "ir"
      ],
      [
        "s",
        "to"
      ],
      [
        "c",
        "oun"
      ],
      [
        "S",
        "o"
      ],
      [
        "T",
        "his"
      ],
      [
        "Y",
        "es"
      ],
      [
        "i",
        "ce"
      ],
      [
        "w",
        "ent"
      ],
      [
        "st",
        "and"
      ],
      [
        "M",
        "y"
      ],
      [
        "b",
        "ed"
      ],
      [
        "m",
        "s"
      ],
      [
        "re",
        "n"
      ],
      [
        "m",
        "ake"
      ],
      [
        "the",
        "se"
      ],
      [
        "su",
        "re"
      ],
      [
        "wor",
        "k"
      ],
      [
        "b",
        "ro"
      ],
      [
        "d",
        "es"
      ],
      [
        "ﬁ",
        "nd"
      ],
      [
        "p",
        "t"
      ],
      [
        "p",
        "ass"
      ],
      [
        "ap",
        "pe"
      ],
      [
        "wind",
        "ow"
      ],
      [
        "The",
        "y"
      ],
      [
        "d",
        "en"
      ],
      [
        "w",
        "a"
      ],
      [
        "c",
        "are"
      ],
      [
        "o",
        "d"
      ],
      [
        "t",
        "ake"
      ],
      [
        "an",
        "c"
      ],
      [
        "f",
        "ar"
      ],
      [
        "har",
        "d"
      ],
      [
        "go",
        "t"
      ],
      [
        "c",
        "u"
      ],
      [
        "g",
        "u"
      ],
      [
        "w",
        "r"
      ],
      [
        "d",
        "on"
      ],
      [
        "n",
        "ess"
      ],
      [
        "in",
        "st"
      ],
      [
        "c",
        "lo"
      ],
      [
        ".",
        "’"
      ],
      [
        "v",
        "o"
      ],
      [
        "p",
        "ap"
      ],
      [
        "O",
        "n"
      ],
      [
        "too",
        "k"
      ],
      [
        "him",
        "self"
      ],
      [
        "re",
        "et"
      ],
      [
        "look",
        "ed"
      ],
      [
        "c",
        "ur"
      ],
      [
        "ti",
        "l"
      ],
      [
        "l",
        "ad"
      ],
      [
        "t",
        "ing"
      ],
      [
        "he",
        "l"
      ],
      [
        "y",
        "et"
      ],
      [
        "mor",
        "ning"
      ],
      [
        "g",
        "g"
      ],
      [
        "he",
        "n"
      ],
      [
        "s",
        "ur"
      ],
      [
        "p",
        "res"
      ],
      [
        "e",
        "f"
      ],
      [
        "tr",
        "y"
      ],
      [
        "ion",
        "s"
      ],
      [
        "c",
        "all"
      ],
      [
        "l",
        "es"
      ],
      [
        "pl",
        "ace"
      ],
      [
        "g",
        "ive"
      ],
      [
        "un",
        "til"
      ],
      [
        "l",
        "ow"
      ],
      [
        "p",
        "le"
      ],
      [
        "st",
        "ill"
      ],
      [
        "cle",
        "ar"
      ],
      [
        "cer",
        "tain"
      ],
      [
        "e",
        "v"
      ],
      [
        "you",
        "ng"
      ],
      [
        "c",
        "hi"
      ],
      [
        "pos",
        "si"
      ],
      [
        "A",
        "s"
      ],
      [
        "s",
        "at"
      ],
      [
        "t",
        "ak"
      ],
      [
        "d",
        "one"
      ],
      [
        "i",
        "ly"
      ],
      [
        "o",
        "se"
      ],
      [
        "re",
        "as"
      ],
      [
        "f",
        "ull"
      ],
      [
        "i",
        "es"
      ],
      [
        "wo",
        "man"
      ],
      [
        "mb",
        "er"
      ],
      [
        "at",
        "t"
      ],
      [
        "th",
        "y"
      ],
      [
        "th",
        "ree"
      ],
      [
        "vent",
        "ure"
      ],
      [
        "be",
        "g"
      ],
      [
        "se",
        "en"
      ],
      [
        "ra",
        "w"
      ],
      [
        "H",
        "ow"
      ],
      [
        "m",
        "on"
      ],
      [
        "c",
        "or"
      ],
      [
        "k",
        "new"
      ],
      [
        "se",
        "t"
      ],
      [
        "A",
        "d"
      ],
      [
        "P",
        "e"
      ],
      [
        "d",
        "ou"
      ],
      [
        "m",
        "ind"
      ],
      [
        "y",
        "ear"
      ],
      [
        "oo",
        "t"
      ],
      [
        "how",
        "ever"
      ],
      [
        "read",
        "y"
      ],
      [
        "l",
        "ay"
      ],
      [
        "p",
        "i"
      ],
      [
        "w",
        "at"
      ],
      [
        "qu",
        "ite"
      ],
      [
        "cour",
        "se"
      ],
      [
        "p",
        "ed"
      ],
      [
        "w",
        "alk"
      ],
      [
        "sa",
        "me"
      ],
      [
        "H",
        "is"
      ],
      [
        "t",
        "on"
      ],
      [
        "p",
        "art"
      ],
      [
        "ti",
        "c"
      ],
      [
        "W",
        "hen"
      ],
      [
        "l",
        "and"
      ],
      [
        "o",
        "c"
      ],
      [
        "er",
        "y"
      ],
      [
        "sh",
        "ow"
      ],
      [
        "hand",
        "s"
      ],
      [
        "rem",
        "ark"
      ],
      [
        "N",
        "ow"
      ],
      [
        "s",
        "up"
      ],
      [
        "st",
        "r"
      ],
      [
        "li",
        "fe"
      ],
      [
        "Pe",
        "ter"
      ],
      [
        "way",
        "s"
      ],
      [
        "h",
        "or"
      ],
      [
        "a",
        "v"
      ],
      [
        "i",
        "ous"
      ],
      [
        "n",
        "ame"
      ],
      [
        "th",
        "ough"
      ],
      [
        "sm",
        "all"
      ],
      [
        "d",
        "ark"
      ],
      [
        "d",
        "er"
      ],
      [
        "b",
        "t"
      ],
      [
        "w",
        "ant"
      ],
      [
        "ro",
        "ss"
      ],
      [
        "pe",
        "ct"
      ],
      [
        "t",
        "en"
      ],
      [
        "qu",
        "est"
      ],
      [
        "see",
        "med"
      ],
      [
        "s",
        "in"
      ],
      [
        "some",
        "thing"
      ],
      [
        "O",
        "f"
      ],
      [
        "l",
        "ing"
      ],
      [
        "a",
        "w"
      ],
      [
        "b",
        "us"
      ],
      [
        "with",
        "out"
      ],
      [
        "mo",
        "ment"
      ],
      [
        "fe",
        "w"
      ],
      [
        "op",
        "en"
      ],
      [
        "turn",
        "ed"
      ],
      [
        "h",
        "our"
      ],
      [
        "f",
        "act"
      ],
      [
        "wa",
        "it"
      ],
      [
        "j",
        "e"
      ],
      [
        "v",
        "is"
      ],
      [
        "we",
        "red"
      ],
      [
        "whi",
        "le"
      ],
      [
        "l",
        "t"
      ],
      [
        "en",
        "ough"
      ],
      [
        "c",
        "tor"
      ],
      [
        "u",
        "al"
      ],
      [
        "c",
        "hed"
      ],
      [
        "to",
        "ld"
      ],
      [
        "g",
        "i"
      ],
      [
        "my",
        "self"
      ],
      [
        "g",
        "n"
      ],
      [
        "st",
        "ran"
      ],
      [
        "us",
        "ed"
      ],
      [
        "?",
        "\""
      ],
      [
        "ha",
        "lf"
      ],
      [
        "th",
        "ose"
      ],
      [
        "k",
        "n"
      ],
      [
        "fo",
        "llow"
      ],
      [
        "id",
        "ent"
      ],
      [
        "S",
        "her"
      ],
      [
        "d",
        "y"
      ],
      [
        ",",
        "’"
      ],
      [
        "A",
        "t"
      ],
      [
        "A",
        "lice"
      ],
      [
        "ha",
        "pp"
      ],
      [
        "Ad",
        "venture"
      ],
      [
        "too",
        "d"
      ],
      [
        "lad",
        "y"
      ],
      [
        "so",
        "l"
      ],
      [
        "st",
        "ep"
      ],
      [
        "again",
        "st"
      ],
      [
        "i",
        "z"
      ],
      [
        "D",
        "or"
      ],
      [
        "g",
        "ent"
      ],
      [
        "d",
        "ress"
      ],
      [
        "re",
        "w"
      ],
      [
        "s",
        "ho"
      ],
      [
        "dou",
        "bt"
      ],
      [
        "li",
        "e"
      ],
      [
        "ans",
        "wered"
      ],
      [
        "ret",
        "urn"
      ],
      [
        "on",
        "t"
      ],
      [
        "M",
        "c"
      ],
      [
        "in",
        "te"
      ],
      [
        "p",
        "ar"
      ],
      [
        "t",
        "able"
      ],
      [
        "ul",
        "ar"
      ],
      [
        "c",
        "ent"
      ],
      [
        "d",
        "if"
      ],
      [
        "s",
        "po"
      ],
      [
        "re",
        "me"
      ],
      [
        "Sher",
        "lock"
      ],
      [
        "he",
        "art"
      ],
      [
        "an",
        "k"
      ],
      [
        "T",
        "o"
      ],
      [
        "ra",
        "ther"
      ],
      [
        "we",
        "en"
      ],
      [
        "inte",
        "rest"
      ],
      [
        "m",
        "ark"
      ],
      [
        "m",
        "ur"
      ],
      [
        "is",
        "hed"
      ],
      [
        "it",
        "ion"
      ],
      [
        "qu",
        "i"
      ],
      [
        "f",
        "r"
      ],
      [
        "in",
        "ed"
      ],
      [
        "ti",
        "ve"
      ],
      [
        "M",
        "or"
      ],
      [
        "u",
        "m"
      ],
      [
        "ge",
        "ther"
      ],
      [
        "a",
        "il"
      ],
      [
        "d",
        "den"
      ],
      [
        "ing",
        "s"
      ],
      [
        "ca",
        "use"
      ],
      [
        "n",
        "at"
      ],
      [
        "v",
        "ill"
      ],
      [
        "Mr",
        "s"
      ],
      [
        "hel",
        "p"
      ],
      [
        "he",
        "ar"
      ],
      [
        "s",
        "il"
      ],
      [
        "ain",
        "ed"
      ],
      [
        "ang",
        "er"
      ],
      [
        "al",
        "ways"
      ],
      [
        "g",
        "ave"
[...]
